{
  "version": "1.0",
  "truncation": null,
  "padding": null,
  "added_tokens": [
    {
      "id": 0,
      "content": "<|endoftext|>",
      "single_word": false,
      "lstrip": false,
      "rstrip": false,
      "normalized": false,
      "special": true
    },
    {
      "id": 1,
      "content": "<|startoftext|>",
      "single_word": false,
      "lstrip": false,
      "rstrip": false,
      "normalized": false,
      "special": true
    },
    {
      "id": 2,
      "content": "<|pad|>",
      "single_word": false,
      "lstrip": false,
      "rstrip": false,
      "normalized": false,
      "special": true
    },
    {
      "id": 3,
      "content": "<|im_start|>",
      "single_word": false,
      "lstrip": false,
      "rstrip": false,
      "normalized": false,
      "special": true
    },
    {
      "id": 4,
      "content": "<|im_end|>",
      "single_word": false,
      "lstrip": false,
      "rstrip": false,
      "normalized": false,
      "special": true
    },
    {
      "id": 5,
      "content": "<think>",
      "single_word": false,
      "lstrip": false,
      "rstrip": false,
      "normalized": false,
      "special": true
    },
    {
      "id": 6,
      "content": "</think>",
      "single_word": false,
      "lstrip": false,
      "rstrip": false,
      "normalized": false,
      "special": true
    },
    {
      "id": 7,
      "content": "<tool_call>",
      "single_word": false,
      "lstrip": false,
      "rstrip": false,
      "normalized": false,
      "special": true
    },
    {
      "id": 8,
      "content": "</tool_call>",
      "single_word": false,
      "lstrip": false,
      "rstrip": false,
      "normalized": false,
      "special": true
    },
    {
      "id": 9,
      "content": "<tool_response>",
      "single_word": false,
      "lstrip": false,
      "rstrip": false,
      "normalized": false,
      "special": true
    },
    {
      "id": 10,
      "content": "</tool_response>",
      "single_word": false,
      "lstrip": false,
      "rstrip": false,
      "normalized": false,
      "special": true
    }
  ],
  "normalizer": null,
  "pre_tokenizer": {
    "type": "ByteLevel",
    "add_prefix_space": false,
    "trim_offsets": true,
    "use_regex": true
  },
  "post_processor": null,
  "decoder": {
    "type": "ByteLevel",
    "add_prefix_space": true,
    "trim_offsets": true,
    "use_regex": true
  },
  "model": {
    "type": "BPE",
    "dropout": null,
    "unk_token": null,
    "continuing_subword_prefix": null,
    "end_of_word_suffix": null,
    "fuse_unk": false,
    "byte_fallback": false,
    "ignore_merges": false,
    "vocab": {
      "<|endoftext|>": 0,
      "<|startoftext|>": 1,
      "<|pad|>": 2,
      "<|im_start|>": 3,
      "<|im_end|>": 4,
      "<think>": 5,
      "</think>": 6,
      "<tool_call>": 7,
      "</tool_call>": 8,
      "<tool_response>": 9,
      "</tool_response>": 10,
      "!": 11,
      "\"": 12,
      "#": 13,
      "$": 14,
      "%": 15,
      "&": 16,
      "'": 17,
      "(": 18,
      ")": 19,
      "*": 20,
      "+": 21,
      ",": 22,
      "-": 23,
      ".": 24,
      "/": 25,
      "0": 26,
      "1": 27,
      "2": 28,
      "3": 29,
      "4": 30,
      "5": 31,
      "6": 32,
      "7": 33,
      "8": 34,
      "9": 35,
      ":": 36,
      ";": 37,
      "<": 38,
      "=": 39,
      ">": 40,
      "?": 41,
      "@": 42,
      "A": 43,
      "B": 44,
      "C": 45,
      "D": 46,
      "E": 47,
      "F": 48,
      "G": 49,
      "H": 50,
      "I": 51,
      "J": 52,
      "K": 53,
      "L": 54,
      "M": 55,
      "N": 56,
      "O": 57,
      "P": 58,
      "Q": 59,
      "R": 60,
      "S": 61,
      "T": 62,
      "U": 63,
      "V": 64,
      "W": 65,
      "X": 66,
      "Y": 67,
      "Z": 68,
      "[": 69,
      "\\": 70,
      "]": 71,
      "^": 72,
      "_": 73,
      "`": 74,
      "a": 75,
      "b": 76,
      "c": 77,
      "d": 78,
      "e": 79,
      "f": 80,
      "g": 81,
      "h": 82,
      "i": 83,
      "j": 84,
      "k": 85,
      "l": 86,
      "m": 87,
      "n": 88,
      "o": 89,
      "p": 90,
      "q": 91,
      "r": 92,
      "s": 93,
      "t": 94,
      "u": 95,
      "v": 96,
      "w": 97,
      "x": 98,
      "y": 99,
      "z": 100,
      "{": 101,
      "|": 102,
      "}": 103,
      "~": 104,
      "¡": 105,
      "¢": 106,
      "£": 107,
      "¤": 108,
      "¥": 109,
      "¦": 110,
      "§": 111,
      "¨": 112,
      "©": 113,
      "ª": 114,
      "«": 115,
      "¬": 116,
      "®": 117,
      "¯": 118,
      "°": 119,
      "±": 120,
      "²": 121,
      "³": 122,
      "´": 123,
      "µ": 124,
      "¶": 125,
      "·": 126,
      "¸": 127,
      "¹": 128,
      "º": 129,
      "»": 130,
      "¼": 131,
      "½": 132,
      "¾": 133,
      "¿": 134,
      "À": 135,
      "Á": 136,
      "Â": 137,
      "Ã": 138,
      "Ä": 139,
      "Å": 140,
      "Æ": 141,
      "Ç": 142,
      "È": 143,
      "É": 144,
      "Ê": 145,
      "Ë": 146,
      "Ì": 147,
      "Í": 148,
      "Î": 149,
      "Ï": 150,
      "Ð": 151,
      "Ñ": 152,
      "Ò": 153,
      "Ó": 154,
      "Ô": 155,
      "Õ": 156,
      "Ö": 157,
      "×": 158,
      "Ø": 159,
      "Ù": 160,
      "Ú": 161,
      "Û": 162,
      "Ü": 163,
      "Ý": 164,
      "Þ": 165,
      "ß": 166,
      "à": 167,
      "á": 168,
      "â": 169,
      "ã": 170,
      "ä": 171,
      "å": 172,
      "æ": 173,
      "ç": 174,
      "è": 175,
      "é": 176,
      "ê": 177,
      "ë": 178,
      "ì": 179,
      "í": 180,
      "î": 181,
      "ï": 182,
      "ð": 183,
      "ñ": 184,
      "ò": 185,
      "ó": 186,
      "ô": 187,
      "õ": 188,
      "ö": 189,
      "÷": 190,
      "ø": 191,
      "ù": 192,
      "ú": 193,
      "û": 194,
      "ü": 195,
      "ý": 196,
      "þ": 197,
      "ÿ": 198,
      "Ā": 199,
      "ā": 200,
      "Ă": 201,
      "ă": 202,
      "Ą": 203,
      "ą": 204,
      "Ć": 205,
      "ć": 206,
      "Ĉ": 207,
      "ĉ": 208,
      "Ċ": 209,
      "ċ": 210,
      "Č": 211,
      "č": 212,
      "Ď": 213,
      "ď": 214,
      "Đ": 215,
      "đ": 216,
      "Ē": 217,
      "ē": 218,
      "Ĕ": 219,
      "ĕ": 220,
      "Ė": 221,
      "ė": 222,
      "Ę": 223,
      "ę": 224,
      "Ě": 225,
      "ě": 226,
      "Ĝ": 227,
      "ĝ": 228,
      "Ğ": 229,
      "ğ": 230,
      "Ġ": 231,
      "ġ": 232,
      "Ģ": 233,
      "ģ": 234,
      "Ĥ": 235,
      "ĥ": 236,
      "Ħ": 237,
      "ħ": 238,
      "Ĩ": 239,
      "ĩ": 240,
      "Ī": 241,
      "ī": 242,
      "Ĭ": 243,
      "ĭ": 244,
      "Į": 245,
      "į": 246,
      "İ": 247,
      "ı": 248,
      "Ĳ": 249,
      "ĳ": 250,
      "Ĵ": 251,
      "ĵ": 252,
      "Ķ": 253,
      "ķ": 254,
      "ĸ": 255,
      "Ĺ": 256,
      "ĺ": 257,
      "Ļ": 258,
      "ļ": 259,
      "Ľ": 260,
      "ľ": 261,
      "Ŀ": 262,
      "ŀ": 263,
      "Ł": 264,
      "ł": 265,
      "Ń": 266,
      "Ġt": 267,
      "Ġa": 268,
      "he": 269,
      "in": 270,
      "re": 271,
      "Ġthe": 272,
      "on": 273,
      "Ġs": 274,
      "er": 275,
      "nd": 276,
      "Ġw": 277,
      "at": 278,
      "Ġc": 279,
      "Ġo": 280,
      "es": 281,
      "it": 282,
      "en": 283,
      "ed": 284,
      "Ġb": 285,
      "is": 286,
      "Ġf": 287,
      "ing": 288,
      "Ġp": 289,
      "or": 290,
      "an": 291,
      "ou": 292,
      "al": 293,
      "Ġto": 294,
      "Ġand": 295,
      "ar": 296,
      "Ġm": 297,
      "Ġd": 298,
      "Ġin": 299,
      "Ġof": 300,
      "ion": 301,
      "ic": 302,
      "Ġh": 303,
      "le": 304,
      "as": 305,
      "om": 306,
      "ĠĠ": 307,
      "Ġl": 308,
      "Ġth": 309,
      "Ġe": 310,
      "ent": 311,
      "ĠT": 312,
      "Ġn": 313,
      "il": 314,
      "im": 315,
      "ro": 316,
      "st": 317,
      "ct": 318,
      "Ġre": 319,
      "ve": 320,
      "et": 321,
      "id": 322,
      "Ġg": 323,
      "ay": 324,
      "ly": 325,
      "ut": 326,
      "ot": 327,
      "ow": 328,
      "Ġu": 329,
      "ĠS": 330,
      "se": 331,
      "ig": 332,
      "am": 333,
      "Ġbe": 334,
      "ce": 335,
      "ol": 336,
      "ad": 337,
      "ĠI": 338,
      "Ġis": 339,
      "Ġhe": 340,
      "ver": 341,
      "Ġy": 342,
      "ir": 343,
      "ch": 344,
      "ation": 345,
      "ur": 346,
      "ĠA": 347,
      "Ġst": 348,
      "Ġfor": 349,
      "Ġon": 350,
      "ĠThe": 351,
      "ith": 352,
      "Ġit": 353,
      "Ġwas": 354,
      "Ġthat": 355,
      "Ġyou": 356,
      "el": 357,
      "Ġwith": 358,
      "ul": 359,
      "ra": 360,
      "ĠC": 361,
      "est": 362,
      "Ġas": 363,
      "Ġwh": 364,
      "ri": 365,
      "Ġan": 366,
      "her": 367,
      "Ġcon": 368,
      "ĠH": 369,
      "if": 370,
      "Ġal": 371,
      "ter": 372,
      "âĢ": 373,
      "pp": 374,
      "ĠM": 375,
      "Ġha": 376,
      "ke": 377,
      "od": 378,
      "ld": 379,
      "ĠB": 380,
      "Ġex": 381,
      "ist": 382,
      "ant": 383,
      "Ġor": 384,
      "ag": 385,
      "ĠW": 386,
      "Ġpro": 387,
      "ere": 388,
      "un": 389,
      "em": 390,
      "us": 391,
      "Ġ(": 392,
      "ers": 393,
      "Ġare": 394,
      "ate": 395,
      "Ġcom": 396,
      "ĠĠĠĠ": 397,
      "ac": 398,
      "ess": 399,
      "ore": 400,
      "pe": 401,
      "um": 402,
      "Ġ\"": 403,
      "th": 404,
      "ab": 405,
      "ill": 406,
      "Ġ1": 407,
      "ĠP": 408,
      "rom": 409,
      "ure": 410,
      "op": 411,
      "'s": 412,
      "ies": 413,
      "Ġpl": 414,
      "Ġde": 415,
      "qu": 416,
      "Ġv": 417,
      "Ġr": 418,
      "Ġse": 419,
      "ht": 420,
      "Ġsa": 421,
      "Ġne": 422,
      "ive": 423,
      "ain": 424,
      "ity": 425,
      "art": 426,
      "ĠL": 427,
      "all": 428,
      "and": 429,
      "Ġcan": 430,
      "iv": 431,
      "Ġnot": 432,
      "Ġat": 433,
      "os": 434,
      "nt": 435,
      "Ġsu": 436,
      "Ġsh": 437,
      "Ġle": 438,
      "oc": 439,
      "ould": 440,
      "Ġch": 441,
      "ĠD": 442,
      "ment": 443,
      "ĠE": 444,
      "ĠF": 445,
      "og": 446,
      "Ġby": 447,
      "rou": 448,
      "ort": 449,
      "res": 450,
      "ome": 451,
      "--": 452,
      "Ġfrom": 453,
      "ud": 454,
      "ial": 455,
      "ect": 456,
      "Ġthey": 457,
      "ĠR": 458,
      "end": 459,
      "ns": 460,
      "Ġk": 461,
      "out": 462,
      "ight": 463,
      "pt": 464,
      "Ġthis": 465,
      "Ġhis": 466,
      "Ġhave": 467,
      "ical": 468,
      "ok": 469,
      "Ġwor": 470,
      "pl": 471,
      "ard": 472,
      "Ġus": 473,
      "Ġab": 474,
      "are": 475,
      "ions": 476,
      "ĊĠĠĠĠ": 477,
      "very": 478,
      "ĠG": 479,
      "ide": 480,
      "ĠN": 481,
      "Ġwe": 482,
      "ust": 483,
      "Ġtheir": 484,
      "Ġint": 485,
      "ther": 486,
      "The": 487,
      "ine": 488,
      "Ġen": 489,
      "Ġ2": 490,
      "Ġdo": 491,
      "Ġli": 492,
      "ĠHe": 493,
      "ĠO": 494,
      "ge": 495,
      "Ġall": 496,
      "ĠThey": 497,
      "ne": 498,
      "Ġwhe": 499,
      "Ġbut": 500,
      "ĠĠĠ": 501,
      "Ġher": 502,
      "our": 503,
      "ind": 504,
      "Ġup": 505,
      "ame": 506,
      "Ġyour": 507,
      "Ġim": 508,
      "ell": 509,
      "Ġlo": 510,
      "estion": 511,
      "Ġme": 512,
      "wer": 513,
      "iz": 514,
      "ak": 515,
      "ous": 516,
      "per": 517,
      "ry": 518,
      "ime": 519,
      "ich": 520,
      "ong": 521,
      "ast": 522,
      "Ġso": 523,
      "Ġj": 524,
      "Qu": 525,
      "Ġplay": 526,
      "ans": 527,
      "ĠJ": 528,
      "Ġgo": 529,
      "Ġday": 530,
      "Ġad": 531,
      "gh": 532,
      "ack": 533,
      "Ġsaid": 534,
      "Ġhad": 535,
      "Ġwere": 536,
      "act": 537,
      "00": 538,
      "ost": 539,
      "ff": 540,
      "ue": 541,
      "ated": 542,
      "Question": 543,
      "nswer": 544,
      "Answer": 545,
      "Ġcl": 546,
      "Ġcont": 547,
      "ake": 548,
      "Ġthere": 549,
      "ations": 550,
      "ap": 551,
      "Ġman": 552,
      "Ġcomp": 553,
      "age": 554,
      "ie": 555,
      "ult": 556,
      "ile": 557,
      "ip": 558,
      "uc": 559,
      "ily": 560,
      "ĠâĢ": 561,
      "ass": 562,
      "Ġtime": 563,
      "ia": 564,
      "able": 565,
      "âĢĻ": 566,
      "ĠU": 567,
      "one": 568,
      "Ġother": 569,
      "ĠTh": 570,
      "ire": 571,
      "cc": 572,
      "Ġout": 573,
      "ance": 574,
      "Ġdis": 575,
      "ach": 576,
      "ally": 577,
      "ary": 578,
      "Ġres": 579,
      "Ġwill": 580,
      "Ġlike": 581,
      "itt": 582,
      "Ġabout": 583,
      "Ġtr": 584,
      "ound": 585,
      "cl": 586,
      "ĠIt": 587,
      "ib": 588,
      "ice": 589,
      "Ġwhich": 590,
      "orm": 591,
      "Ġthem": 592,
      "ĊĠĠĠ": 593,
      "Ġmore": 594,
      "ear": 595,
      "ĠShe": 596,
      "ence": 597,
      "Ġsc": 598,
      "ked": 599,
      "Ġshe": 600,
      "ĠIn": 601,
      "Ġwant": 602,
      "Ġte": 603,
      "au": 604,
      "reat": 605,
      "av": 606,
      "Ġhel": 607,
      "now": 608,
      "Ġar": 609,
      "ep": 610,
      "ress": 611,
      "ĠWh": 612,
      "so": 613,
      "Ġone": 614,
      "Ġsome": 615,
      "Ġbo": 616,
      "ents": 617,
      "Ġro": 618,
      "vel": 619,
      "Ġhapp": 620,
      "Ġun": 621,
      "**": 622,
      "Ġapp": 623,
      "ree": 624,
      "riend": 625,
      "ks": 626,
      "ish": 627,
      "Ġhas": 628,
      "Ġbig": 629,
      "ction": 630,
      "ĠTim": 631,
      "Ġhelp": 632,
      "Ġbec": 633,
      "nder": 634,
      "Ġimp": 635,
      "ings": 636,
      "Ġsp": 637,
      "Ġwho": 638,
      "ory": 639,
      "Ġwhat": 640,
      "'t": 641,
      "ace": 642,
      "Ġfriend": 643,
      "Ġinto": 644,
      "Ġev": 645,
      "ber": 646,
      "ces": 647,
      "Ġpre": 648,
      "Ġcomm": 649,
      "Ġspe": 650,
      "ater": 651,
      "ite": 652,
      "ign": 653,
      "ang": 654,
      "low": 655,
      "Ġsm": 656,
      "Ġwould": 657,
      "ase": 658,
      "ru": 659,
      "Ġper": 660,
      "Ġ`": 661,
      "Ġpart": 662,
      "Ġvery": 663,
      "ose": 664,
      "Ġwhen": 665,
      "ition": 666,
      "Ġ19": 667,
      "Ġhow": 668,
      ".\"": 669,
      "Ġfe": 670,
      "----": 671,
      "Ġqu": 672,
      "ors": 673,
      "ild": 674,
      "Ġdid": 675,
      "ved": 676,
      "ood": 677,
      "Ġalso": 678,
      "Ġpe": 679,
      "Ġ-": 680,
      "get": 681,
      "Ġag": 682,
      "Ġknow": 683,
      "ays": 684,
      "hed": 685,
      "ãģ": 686,
      "ount": 687,
      "Ġcould": 688,
      "fere": 689,
      "ord": 690,
      "Ġunder": 691,
      "ian": 692,
      "Ġnew": 693,
      "form": 694,
      "ond": 695,
      "ens": 696,
      "ĠY": 697,
      "ĠK": 698,
      "round": 699,
      "ll": 700,
      "Ġbet": 701,
      "ful": 702,
      "ub": 703,
      "Ġits": 704,
      "eth": 705,
      "ark": 706,
      "ual": 707,
      "Ġthese": 708,
      "nce": 709,
      "ĠSt": 710,
      "ious": 711,
      "Ġany": 712,
      "Ġsy": 713,
      "Ġcol": 714,
      "Ġem": 715,
      "ob": 716,
      "ittle": 717,
      "ĠCh": 718,
      "Ġif": 719,
      "arn": 720,
      "Ġlook": 721,
      ").": 722,
      "Ġthan": 723,
      "Ġdif": 724,
      "rough": 725,
      "we": 726,
      "Ġam": 727,
      "Ġfun": 728,
      "int": 729,
      "ph": 730,
      "Ġuse": 731,
      "Ġover": 732,
      "Ġlittle": 733,
      "Ġco": 734,
      "Ġmy": 735,
      "ĠĊ": 736,
      "ating": 737,
      "ities": 738,
      "olog": 739,
      "ys": 740,
      "ict": 741,
      "ade": 742,
      "xt": 743,
      "|>": 744,
      "<|": 745,
      "Ġind": 746,
      "Ġno": 747,
      "ople": 748,
      "Ġmom": 749,
      "ple": 750,
      "Ġdes": 751,
      "ific": 752,
      "Ġsaw": 753,
      "Ġour": 754,
      "ons": 755,
      "du": 756,
      "vers": 757,
      "irst": 758,
      "ail": 759,
      "Ġrec": 760,
      "Ġhappy": 761,
      "ates": 762,
      "fter": 763,
      "oth": 764,
      "Ġwork": 765,
      "ĠThis": 766,
      "wn": 767,
      "Ġtw": 768,
      "Ġnam": 769,
      "Ġneed": 770,
      "ird": 771,
      "les": 772,
      "ause": 773,
      "hen": 774,
      "Ġmany": 775,
      "Ġsuch": 776,
      "Ġfound": 777,
      "ĠV": 778,
      "rit": 779,
      "Ġspec": 780,
      "Ġhim": 781,
      "ick": 782,
      "Ġpeople": 783,
      "Ġinter": 784,
      "ink": 785,
      "Ġrel": 786,
      "Ġcons": 787,
      "Ġstud": 788,
      "red": 789,
      "clud": 790,
      "Ġacc": 791,
      "uring": 792,
      "mer": 793,
      "Ġra": 794,
      "Ġthrough": 795,
      "Ġact": 796,
      "Ġmay": 797,
      "Ġfriends": 798,
      "Ġbl": 799,
      "igh": 800,
      "lect": 801,
      "Ġevery": 802,
      "Ġbeen": 803,
      "cess": 804,
      "Ġnamed": 805,
      "stem": 806,
      "Ġsom": 807,
      "own": 808,
      "Ġback": 809,
      "te": 810,
      "ght": 811,
      "ise": 812,
      "erm": 813,
      "Ġoff": 814,
      "ng": 815,
      "Ġmake": 816,
      "Ġsee": 817,
      "Ġdiffere": 818,
      "ax": 819,
      "Ġinst": 820,
      "Ġget": 821,
      "als": 822,
      "Ġ3": 823,
      "Ġlearn": 824,
      "ures": 825,
      "Ġyear": 826,
      "Ġused": 827,
      "ĠWhat": 828,
      "Ġpr": 829,
      "ics": 830,
      "âĢĿ": 831,
      "ative": 832,
      "pect": 833,
      "Ġfirst": 834,
      "Ġinc": 835,
      "Ġser": 836,
      "Ġrem": 837,
      "ject": 838,
      "old": 839,
      "ove": 840,
      "),": 841,
      "ving": 842,
      "ular": 843,
      "Ġwanted": 844,
      "ĊĊ": 845,
      "Ġph": 846,
      "Ġadd": 847,
      "Ġbu": 848,
      "!\"": 849,
      "sel": 850,
      "Ġ20": 851,
      "Ġtoget": 852,
      "Ġtogether": 853,
      "Ġupon": 854,
      "Ġinclud": 855,
      "Ġpo": 856,
      "Ġtwo": 857,
      "ient": 858,
      "ft": 859,
      "ath": 860,
      "rib": 861,
      "Ġstart": 862,
      "ough": 863,
      "ĠâĢĵ": 864,
      "Ġwhere": 865,
      "Ġtra": 866,
      "Ġthen": 867,
      "ments": 868,
      "Ġjust": 869,
      "Ġgen": 870,
      "Ġfind": 871,
      "Ġdec": 872,
      "Ġsur": 873,
      "In": 874,
      "Ġac": 875,
      "ween": 876,
      "row": 877,
      "Ġcar": 878,
      "ract": 879,
      "Ġbird": 880,
      "Ġexam": 881,
      "Ġonly": 882,
      "Ġreg": 883,
      "ĠLily": 884,
      "fore": 885,
      "ited": 886,
      "Ġinv": 887,
      "Ġwent": 888,
      "hes": 889,
      "ĠTom": 890,
      "Ġexpl": 891,
      "lic": 892,
      "gr": 893,
      "Ġbetween": 894,
      "Ġform": 895,
      "Ġmost": 896,
      "Ġstr": 897,
      "Ġeff": 898,
      "Ġke": 899,
      "Ġprov": 900,
      "Ġrep": 901,
      "stand": 902,
      "Ġfl": 903,
      "velop": 904,
      "Ġins": 905,
      "ning": 906,
      "Th": 907,
      "Ġtoo": 908,
      "Ġdoes": 909,
      "ange": 910,
      "Ġpos": 911,
      "iss": 912,
      "ility": 913,
      "alth": 914,
      "ible": 915,
      "ĠâĢľ": 916,
      "ĠUn": 917,
      "Ġcall": 918,
      "ational": 919,
      "Ġatt": 920,
      "ased": 921,
      "One": 922,
      "aking": 923,
      "ism": 924,
      "Ġmod": 925,
      "Ġsystem": 926,
      "Ġtrans": 927,
      "ared": 928,
      "Ġcat": 929,
      "uch": 930,
      "iet": 931,
      "ered": 932,
      "ething": 933,
      "Ġmade": 934,
      "anc": 935,
      "ife": 936,
      "Ġafter": 937,
      "ied": 938,
      "Ġeven": 939,
      "gan": 940,
      "ert": 941,
      "Ġeach": 942,
      "Once": 943,
      "Ġass": 944,
      "ec": 945,
      "Ġway": 946,
      "..": 947,
      "ss": 948,
      "other": 949,
      "ĊĠĠĠĠĊĠĠĠ": 950,
      "ower": 951,
      "Ġwhile": 952,
      "ĠBut": 953,
      "Ġcre": 954,
      "Ġaw": 955,
      "Ġsomething": 956,
      "Ġpers": 957,
      "Ġlong": 958,
      "Ġsmall": 959,
      "Ġgood": 960,
      "ĠHow": 961,
      "Ġbecause": 962,
      "Ġshould": 963,
      "Ġdisc": 964,
      "Ġaround": 965,
      "Ġboth": 966,
      "Ġvar": 967,
      "Ġdifferent": 968,
      "ty": 969,
      "Ġagain": 970,
      "Ġset": 971,
      "ric": 972,
      "chn": 973,
      "Ġob": 974,
      "my": 975,
      "Ġdown": 976,
      "ave": 977,
      "Wh": 978,
      "Ġsupp": 979,
      "Ġfol": 980,
      "oy": 981,
      "Ġsim": 982,
      "Ġusing": 983,
      "cho": 984,
      "Ġworld": 985,
      "ble": 986,
      "ves": 987,
      "its": 988,
      "Ġdevelop": 989,
      "enc": 990,
      "ines": 991,
      "ident": 992,
      "gg": 993,
      "ouse": 994,
      "Ġwater": 995,
      "Ġsub": 996,
      "ck": 997,
      "Ġexper": 998,
      "Ġpol": 999,
      "ural": 1000,
      "ren": 1001,
      "Ġread": 1002,
      "Ġexp": 1003,
      "Ġliv": 1004,
      "ought": 1005,
      "aw": 1006,
      "arch": 1007,
      "ever": 1008,
      "Ġdog": 1009,
      "arm": 1010,
      "Ġhigh": 1011,
      "ern": 1012,
      "ĠYou": 1013,
      "ting": 1014,
      "Ġsk": 1015,
      "Ġnum": 1016,
      "ution": 1017,
      "Ġsoc": 1018,
      "ew": 1019,
      "Ġfam": 1020,
      "Ġend": 1021,
      "led": 1022,
      "cept": 1023,
      "urn": 1024,
      "Ġimport": 1025,
      "Ġart": 1026,
      "ata": 1027,
      "ience": 1028,
      "ices": 1029,
      "vent": 1030,
      "ues": 1031,
      "Ġwell": 1032,
      "?\"": 1033,
      "--------": 1034,
      "irl": 1035,
      "ont": 1036,
      "Ġfollow": 1037,
      "Ġinf": 1038,
      "Ġshow": 1039,
      "ically": 1040,
      "meric": 1041,
      "ward": 1042,
      "Ġty": 1043,
      "ually": 1044,
      "Ġmuch": 1045,
      "ps": 1046,
      "ize": 1047,
      "Ġ4": 1048,
      "Ġunderstand": 1049,
      "Ġhome": 1050,
      "Ġbr": 1051,
      "Ġpres": 1052,
      "ists": 1053,
      "Ġ=": 1054,
      ",\"": 1055,
      "ork": 1056,
      "Ġloc": 1057,
      "Ġop": 1058,
      "ĠAl": 1059,
      "start": 1060,
      "erg": 1061,
      "Ġchild": 1062,
      "ĊĠĠĠĠĊĠĠĠĠĊĠĠĠ": 1063,
      "Ġbeing": 1064,
      "Ġlet": 1065,
      "Ġsec": 1066,
      "Ġcommun": 1067,
      "hip": 1068,
      "ĠAs": 1069,
      "Ġduring": 1070,
      "ĠSp": 1071,
      "Ġtechn": 1072,
      "ature": 1073,
      "ology": 1074,
      "Ġhum": 1075,
      "ins": 1076,
      "ness": 1077,
      "Ġsign": 1078,
      "ized": 1079,
      "Ġval": 1080,
      "ential": 1081,
      "ĠWe": 1082,
      "Ġ'": 1083,
      "ĠAn": 1084,
      "Ġbefore": 1085,
      "ef": 1086,
      "tern": 1087,
      "Ġcare": 1088,
      "ix": 1089,
      "Ġ201": 1090,
      "Ġgr": 1091,
      "Ġgirl": 1092,
      "Ġcent": 1093,
      "Ġcount": 1094,
      "Ġown": 1095,
      "ĠOne": 1096,
      "Ġplayed": 1097,
      "Ġrun": 1098,
      "ãĤ": 1099,
      "imes": 1100,
      "Ġball": 1101,
      "ĠAmeric": 1102,
      "alk": 1103,
      "Ġmed": 1104,
      "iqu": 1105,
      "ages": 1106,
      "ried": 1107,
      "Ġ200": 1108,
      "Ġdef": 1109,
      "ather": 1110,
      "ten": 1111,
      "Ġref": 1112,
      "Ġ5": 1113,
      "Ġcur": 1114,
      "Ġhealth": 1115,
      "self": 1116,
      "Ġent": 1117,
      "Ġyears": 1118,
      "land": 1119,
      "Ġright": 1120,
      "Ġfeel": 1121,
      "Ġ*": 1122,
      "Ġhand": 1123,
      "duc": 1124,
      "Ġthings": 1125,
      "Ġthought": 1126,
      "Ġhist": 1127,
      "Ġthose": 1128,
      "Ġdist": 1129,
      "ruct": 1130,
      "Ġcalled": 1131,
      "Ġcomple": 1132,
      "Ġtree": 1133,
      "Ġdet": 1134,
      "Ġear": 1135,
      "ov": 1136,
      "Ġche": 1137,
      "Ġtake": 1138,
      "ĠAnd": 1139,
      "Ġprocess": 1140,
      "Ġgener": 1141,
      "Ġmean": 1142,
      "chool": 1143,
      "Ġed": 1144,
      "ened": 1145,
      "Ġdon": 1146,
      "Ġaut": 1147,
      "ants": 1148,
      "Ġchar": 1149,
      "irect": 1150,
      "pr": 1151,
      "Ġinform": 1152,
      "Ġext": 1153,
      "Ġthink": 1154,
      "iew": 1155,
      "Ġpat": 1156,
      "here": 1157,
      "nect": 1158,
      "Ġprodu": 1159,
      "ash": 1160,
      "Ġlar": 1161,
      "ĠFor": 1162,
      "Ġlead": 1163,
      "Ġput": 1164,
      "Ġdi": 1165,
      "elt": 1166,
      "Ġpartic": 1167,
      "Ġcame": 1168,
      "ways": 1169,
      "Ġlife": 1170,
      "ank": 1171,
      "air": 1172,
      "Ġgreat": 1173,
      "Ġexample": 1174,
      "Ġperson": 1175,
      "Ġmight": 1176,
      "ives": 1177,
      "Ġgl": 1178,
      "Ġ18": 1179,
      "Ġconf": 1180,
      "inal": 1181,
      "Ġrequ": 1182,
      "Ġ$": 1183,
      "Ġsame": 1184,
      "ivid": 1185,
      "con": 1186,
      "Ġfood": 1187,
      "up": 1188,
      "ĠRe": 1189,
      "Ġca": 1190,
      "Ġlooked": 1191,
      "Ġ**": 1192,
      "ĠAr": 1193,
      "Ġmon": 1194,
      "Ġsad": 1195,
      "Ġide": 1196,
      "Ġnow": 1197,
      "omm": 1198,
      "Ġpop": 1199,
      "Ġaway": 1200,
      "Ġreal": 1201,
      "eng": 1202,
      "akes": 1203,
      "Ġword": 1204,
      "Ġbel": 1205,
      "Ġstarted": 1206,
      "li": 1207,
      "Ġgu": 1208,
      "ars": 1209,
      "Ġloved": 1210,
      "read": 1211,
      "Ġcle": 1212,
      "ven": 1213,
      "Ġmain": 1214,
      "Ġboy": 1215,
      "ts": 1216,
      "Ġcor": 1217,
      "ince": 1218,
      "Ġpub": 1219,
      "ute": 1220,
      "Ġmat": 1221,
      "Ġeffect": 1222,
      "day": 1223,
      "Ġwithin": 1224,
      "any": 1225,
      "Ġbest": 1226,
      "ement": 1227,
      "iron": 1228,
      "ĠWhen": 1229,
      "Ġgrou": 1230,
      "Ġmin": 1231,
      "Ġsw": 1232,
      "Ġrese": 1233,
      "Ġincre": 1234,
      "ĠSo": 1235,
      "19": 1236,
      "Ġbro": 1237,
      "gram": 1238,
      "Ġsay": 1239,
      "iel": 1240,
      "Ġdata": 1241,
      "Ġresult": 1242,
      "ross": 1243,
      "Ġimportant": 1244,
      "ody": 1245,
      "Ġvis": 1246,
      "ock": 1247,
      "ug": 1248,
      "Ġpract": 1249,
      "Ġallow": 1250,
      "Ġcult": 1251,
      "Ġcr": 1252,
      "ook": 1253,
      "Ġasked": 1254,
      "ished": 1255,
      "Ġlist": 1256,
      "ided": 1257,
      "Ġoften": 1258,
      "Ġsol": 1259,
      "Ġbetter": 1260,
      "Ġpower": 1261,
      "Ġgra": 1262,
      "ering": 1263,
      "Ġhere": 1264,
      "Ġtry": 1265,
      "Ġold": 1266,
      "ript": 1267,
      "Ġmem": 1268,
      "Ġstill": 1269,
      "Ġgrow": 1270,
      "Ġcontin": 1271,
      "Ġappro": 1272,
      "ined": 1273,
      "ĠPro": 1274,
      "Ġfact": 1275,
      "uss": 1276,
      "io": 1277,
      "Ġbook": 1278,
      "ĊĠĠĠĠĊ": 1279,
      "ull": 1280,
      "oh": 1281,
      "Ġfil": 1282,
      "ories": 1283,
      "blem": 1284,
      "Ġposs": 1285,
      "Ġfelt": 1286,
      "ĠMax": 1287,
      "Ġret": 1288,
      "be": 1289,
      "Ġalways": 1290,
      "ale": 1291,
      "Ġ/": 1292,
      "vern": 1293,
      "Ġwr": 1294,
      "ĠIf": 1295,
      "ional": 1296,
      "Ġresp": 1297,
      "Ġprot": 1298,
      "pend": 1299,
      "Ġsupport": 1300,
      "Ġbeh": 1301,
      "ases": 1302,
      "Ġconnect": 1303,
      "ĠSam": 1304,
      "pped": 1305,
      "ex": 1306,
      "Ġbuild": 1307,
      "Ġprom": 1308,
      "ital": 1309,
      "ĠIs": 1310,
      "Ġpark": 1311,
      "Ġinformation": 1312,
      "ivers": 1313,
      "ead": 1314,
      "ah": 1315,
      "viron": 1316,
      "ired": 1317,
      "Ġclass": 1318,
      "Ġanother": 1319,
      "Ġhouse": 1320,
      "ĠSue": 1321,
      "Ġschool": 1322,
      "az": 1323,
      "ield": 1324,
      "Ġmet": 1325,
      "Ġcreat": 1326,
      "Ġconsid": 1327,
      "the": 1328,
      "Ġ6": 1329,
      "ters": 1330,
      "ences": 1331,
      "Ġanim": 1332,
      "Ġproblem": 1333,
      "Ġav": 1334,
      "Ġdirect": 1335,
      "ĠBen": 1336,
      "Ġplan": 1337,
      "Ġorgan": 1338,
      "lish": 1339,
      "Ġeng": 1340,
      "ãĥ": 1341,
      "br": 1342,
      "Ġless": 1343,
      "reen": 1344,
      "Ġname": 1345,
      "Ġtook": 1346,
      "ury": 1347,
      "to": 1348,
      "ividual": 1349,
      "ining": 1350,
      "Ġsays": 1351,
      "Ġbecame": 1352,
      "angu": 1353,
      "und": 1354,
      "Ġpot": 1355,
      "Ġadv": 1356,
      "Ġpass": 1357,
      "Ġplace": 1358,
      "itions": 1359,
      "side": 1360,
      "Ġpoint": 1361,
      "Ġsun": 1362,
      "Ġlot": 1363,
      "Ġland": 1364,
      "ĠThese": 1365,
      "iled": 1366,
      "com": 1367,
      "Ġthree": 1368,
      "ny": 1369,
      "ets": 1370,
      "der": 1371,
      "Ġdel": 1372,
      "As": 1373,
      "ĠAd": 1374,
      "oun": 1375,
      "What": 1376,
      "Ġtoy": 1377,
      "Ġmus": 1378,
      "ries": 1379,
      "ĠBy": 1380,
      "ides": 1381,
      "less": 1382,
      "imate": 1383,
      "ci": 1384,
      "Ġprogram": 1385,
      "Ġindividual": 1386,
      "Ġsaf": 1387,
      "Ġdesign": 1388,
      "uck": 1389,
      "Ġfamily": 1390,
      "Ġwithout": 1391,
      "por": 1392,
      "put": 1393,
      "Ġunt": 1394,
      "Ġequ": 1395,
      "work": 1396,
      "Ġfile": 1397,
      "ĠEng": 1398,
      "Ġsl": 1399,
      "Ġnumber": 1400,
      "Ġnear": 1401,
      "Ġmo": 1402,
      "ality": 1403,
      "20": 1404,
      "Ġhuman": 1405,
      "Ġ.": 1406,
      "Ġcharact": 1407,
      "Ġincluding": 1408,
      "erv": 1409,
      "cent": 1410,
      "ense": 1411,
      "ron": 1412,
      "Ġliked": 1413,
      "ains": 1414,
      "It": 1415,
      "rol": 1416,
      "Ġconst": 1417,
      "lu": 1418,
      "Ġmeans": 1419,
      "Ġ[": 1420,
      "ify": 1421,
      "Ġothers": 1422,
      "000": 1423,
      "ization": 1424,
      "Ġtest": 1425,
      "Ġmust": 1426,
      "Ġkeep": 1427,
      "Ġterm": 1428,
      "'m": 1429,
      "ids": 1430,
      "sc": 1431,
      "ner": 1432,
      "Ġknown": 1433,
      "ret": 1434,
      "Ġbra": 1435,
      "Ġcome": 1436,
      "Ġkind": 1437,
      "Ġplaying": 1438,
      "ĊĠĠĠĠĠĠĠ": 1439,
      "Ġcour": 1440,
      "``": 1441,
      "Ġspecial": 1442,
      "Ġred": 1443,
      "ump": 1444,
      "ee": 1445,
      "new": 1446,
      "Ġstudy": 1447,
      "ral": 1448,
      "erest": 1449,
      "ised": 1450,
      "ĠInd": 1451,
      "Ġhard": 1452,
      "Ġchildren": 1453,
      "Ġfin": 1454,
      "Ġstand": 1455,
      "Ġ10": 1456,
      "Ġest": 1457,
      "Ġenviron": 1458,
      "Ġcommon": 1459,
      "ination": 1460,
      "Ġfore": 1461,
      "This": 1462,
      "Ġlevel": 1463,
      "ier": 1464,
      "Ġbus": 1465,
      "ĠAmerican": 1466,
      "ĠCon": 1467,
      "itive": 1468,
      "Ġident": 1469,
      "ĠNew": 1470,
      "Ġstudents": 1471,
      "iety": 1472,
      "Ġcreate": 1473,
      "Ġinvol": 1474,
      "Ġlangu": 1475,
      "ples": 1476,
      "Ġchange": 1477,
      "Ġgot": 1478,
      "iness": 1479,
      "ulation": 1480,
      "Ġele": 1481,
      "bers": 1482,
      "Ġopt": 1483,
      "Ġuntil": 1484,
      "Ġmar": 1485,
      "ertain": 1486,
      "ivity": 1487,
      "##": 1488,
      "man": 1489,
      "Ġopen": 1490,
      "ĠDe": 1491,
      "raph": 1492,
      "els": 1493,
      "Ġbelie": 1494,
      "Ġaff": 1495,
      "Ġvarious": 1496,
      "ently": 1497,
      "orn": 1498,
      "ources": 1499,
      "Ġchang": 1500,
      "Ġocc": 1501,
      "Ġtreat": 1502,
      "ced": 1503,
      "oring": 1504,
      "ection": 1505,
      "ger": 1506,
      "ergy": 1507,
      "Ġrest": 1508,
      "Ġtop": 1509,
      "outh": 1510,
      "Ġsignific": 1511,
      "Ġel": 1512,
      "Ġtrad": 1513,
      "rent": 1514,
      "oss": 1515,
      "Ġiss": 1516,
      "aut": 1517,
      "user": 1518,
      "Ġpur": 1519,
      "Ġsocial": 1520,
      "ling": 1521,
      "omen": 1522,
      "Ġfr": 1523,
      "Ġtyp": 1524,
      "ember": 1525,
      "bs": 1526,
      "Ġlight": 1527,
      "Ġmove": 1528,
      "itional": 1529,
      "ability": 1530,
      "thing": 1531,
      "Ġexc": 1532,
      "Ġseem": 1533,
      "ĠĠĠĠĠĠĠĠ": 1534,
      "ilar": 1535,
      "amp": 1536,
      "Ġtre": 1537,
      "ique": 1538,
      "Ġgovern": 1539,
      "ccess": 1540,
      "Ġran": 1541,
      "ency": 1542,
      "Ġsent": 1543,
      "âĢĶ": 1544,
      "Ġeas": 1545,
      "ethod": 1546,
      "over": 1547,
      "Ġmaking": 1548,
      "orts": 1549,
      "Ġ7": 1550,
      "Ġbre": 1551,
      "Ġpar": 1552,
      "Ġdra": 1553,
      "Ġchall": 1554,
      "Ġbox": 1555,
      "Ġdem": 1556,
      "aj": 1557,
      "Ġve": 1558,
      "Ġprof": 1559,
      "Ġwhy": 1560,
      "Ġinterest": 1561,
      "How": 1562,
      "ĠEx": 1563,
      "Ġsmiled": 1564,
      "ĠHowever": 1565,
      "uro": 1566,
      "ode": 1567,
      "Ġfunction": 1568,
      "sh": 1569,
      "Ġopp": 1570,
      "ason": 1571,
      "par": 1572,
      "Ġcap": 1573,
      "ote": 1574,
      "ateg": 1575,
      "Ġstory": 1576,
      "Ġelect": 1577,
      "10": 1578,
      "cial": 1579,
      "by": 1580,
      "istant": 1581,
      "Ġcell": 1582,
      "Ġlarge": 1583,
      "Ġleg": 1584,
      "Ġlived": 1585,
      "ĠCan": 1586,
      "ĠThere": 1587,
      "Ġimpro": 1588,
      ".,": 1589,
      "line": 1590,
      "Ġever": 1591,
      "Ġdesc": 1592,
      "ĊĠ": 1593,
      "Ġsing": 1594,
      "Ġflow": 1595,
      "Ġnever": 1596,
      "na": 1597,
      "Ġ8": 1598,
      "Ġpublic": 1599,
      "Ġbody": 1600,
      "ane": 1601,
      "ording": 1602,
      "Ġsit": 1603,
      "Ġbecome": 1604,
      "Ġperform": 1605,
      "elf": 1606,
      "Ġcommand": 1607,
      "Ġsever": 1608,
      "mb": 1609,
      "Ġline": 1610,
      "Ġ0": 1611,
      "Ġtried": 1612,
      "Ġlearning": 1613,
      "Ġpain": 1614,
      "Ġstrong": 1615,
      "Ġeduc": 1616,
      "Ġfollowing": 1617,
      "osed": 1618,
      "But": 1619,
      "Ġoutside": 1620,
      "ention": 1621,
      "Ġmag": 1622,
      "cer": 1623,
      "iter": 1624,
      "gin": 1625,
      "Ġnext": 1626,
      "Ġstate": 1627,
      "Ġcond": 1628,
      "St": 1629,
      "ĠAt": 1630,
      "Ġresearch": 1631,
      "Ġfac": 1632,
      "port": 1633,
      "Ġlau": 1634,
      "ted": 1635,
      "Ġhead": 1636,
      "Ġsound": 1637,
      "Ġinclude": 1638,
      "Ġanal": 1639,
      "ext": 1640,
      "Ġgive": 1641,
      "Ġdev": 1642,
      "ision": 1643,
      "You": 1644,
      "Ġenc": 1645,
      "ained": 1646,
      "Ġhistory": 1647,
      "Ġagainst": 1648,
      "Ġamong": 1649,
      "Ġenvironment": 1650,
      "ances": 1651,
      "arent": 1652,
      "ton": 1653,
      "me": 1654,
      "aterial": 1655,
      "Ġseveral": 1656,
      "iven": 1657,
      ".<|": 1658,
      "oci": 1659,
      "iversity": 1660,
      "ĠSh": 1661,
      "Ġbas": 1662,
      "Ġnet": 1663,
      "ocus": 1664,
      "den": 1665,
      "Ġmult": 1666,
      "ental": 1667,
      "Ġaccess": 1668,
      "Ġserv": 1669,
      "atic": 1670,
      "Ġsuccess": 1671,
      "Ġgroup": 1672,
      "ians": 1673,
      "Ġmethod": 1674,
      "âĢĵ": 1675,
      "ium": 1676,
      "Ġsecond": 1677,
      "Ġris": 1678,
      "Ġbased": 1679,
      "Ġess": 1680,
      "lo": 1681,
      "Ġstre": 1682,
      "iod": 1683,
      "ĠSc": 1684,
      "Ġexplore": 1685,
      "oot": 1686,
      "Ġroom": 1687,
      "Ġben": 1688,
      "\".": 1689,
      "Ġair": 1690,
      "Ġens": 1691,
      "ior": 1692,
      "Ġorig": 1693,
      "hers": 1694,
      "ills": 1695,
      "Ġlaw": 1696,
      "Ġpri": 1697,
      "tle": 1698,
      "Ġlearned": 1699,
      "lease": 1700,
      "Ġphys": 1701,
      "Ġwind": 1702,
      "Ġlast": 1703,
      "Ġoper": 1704,
      "Ġinside": 1705,
      "Ġtem": 1706,
      "ox": 1707,
      "ese": 1708,
      "app": 1709,
      "Ġ|": 1710,
      "Ġprovide": 1711,
      "Ġwat": 1712,
      "ape": 1713,
      "Ġho": 1714,
      "aring": 1715,
      "Ġmanag": 1716,
      "ogn": 1717,
      "Ġ&": 1718,
      "Ġant": 1719,
      "urther": 1720,
      "conom": 1721,
      "Ġshare": 1722,
      "Ġhaving": 1723,
      "Ġidea": 1724,
      "Ġrepres": 1725,
      "Ġcase": 1726,
      "etimes": 1727,
      "ols": 1728,
      "ĠSpot": 1729,
      "Ġfew": 1730,
      "ource": 1731,
      "clus": 1732,
      "Ġkey": 1733,
      "Ġalong": 1734,
      "ĠWho": 1735,
      "Ġspecific": 1736,
      "wards": 1737,
      "Ġsignificant": 1738,
      "Ġacross": 1739,
      "Ġsince": 1740,
      "Ġpresent": 1741,
      "Ġdue": 1742,
      "'re": 1743,
      "Ġturn": 1744,
      "Ġmark": 1745,
      "ats": 1746,
      "Ġproduct": 1747,
      "ĠTo": 1748,
      "ĠThat": 1749,
      "Ġpotential": 1750,
      "rop": 1751,
      "ological": 1752,
      "orth": 1753,
      "Ġlove": 1754,
      "Ġimm": 1755,
      "Ġenergy": 1756,
      "assistant": 1757,
      "Ġpret": 1758,
      "rist": 1759,
      "Ġquestion": 1760,
      "Ġtext": 1761,
      "ograph": 1762,
      "Ġparticular": 1763,
      "ames": 1764,
      "Ġgoing": 1765,
      "Ġearly": 1766,
      "hor": 1767,
      "Ġpossible": 1768,
      "Ġet": 1769,
      "...": 1770,
      "Ġmil": 1771,
      "Ġfar": 1772,
      "ĠBe": 1773,
      "Ġmaterial": 1774,
      "Ġcho": 1775,
      "Ġtoys": 1776,
      "Ġknew": 1777,
      "Ġdevelopment": 1778,
      "Ġdecided": 1779,
      "ik": 1780,
      "Ġcrit": 1781,
      "Ġscared": 1782,
      "atural": 1783,
      "ĠHis": 1784,
      "Ġlocal": 1785,
      "Ġanimals": 1786,
      "Ġ199": 1787,
      "Ġground": 1788,
      "Ġunderstanding": 1789,
      "Ġ9": 1790,
      "not": 1791,
      "Ġer": 1792,
      "Ġfocus": 1793,
      "Ġtype": 1794,
      "iting": 1795,
      "Ġcomput": 1796,
      "verse": 1797,
      "Ġproper": 1798,
      "Ġcomplex": 1799,
      "Ġlanguage": 1800,
      "Ġstat": 1801,
      "ĠZ": 1802,
      "ication": 1803,
      "Ġtold": 1804,
      "Ġcaus": 1805,
      "Ġey": 1806,
      "Ġes": 1807,
      "aster": 1808,
      "Ġdri": 1809,
      "ortun": 1810,
      "Ġaddress": 1811,
      "Ġwrit": 1812,
      "\",": 1813,
      "Ġ_": 1814,
      "Ġ<": 1815,
      "Ġstruct": 1816,
      "Ġdr": 1817,
      "ched": 1818,
      "Ġpolit": 1819,
      "Ġcontrol": 1820,
      "Ġsure": 1821,
      "ards": 1822,
      "Ġwords": 1823,
      "bit": 1824,
      "Ġsafe": 1825,
      "Ġproject": 1826,
      "iny": 1827,
      "ively": 1828,
      "ĠCl": 1829,
      "Ġobject": 1830,
      "apan": 1831,
      "ator": 1832,
      "Ġnon": 1833,
      "Ġbi": 1834,
      "Ġarea": 1835,
      "Ġable": 1836,
      "ĠOr": 1837,
      "Ġ,": 1838,
      "Ġz": 1839,
      "ified": 1840,
      "aces": 1841,
      "Ġdep": 1842,
      "Ġtell": 1843,
      "Ġfish": 1844,
      ".âĢĿ": 1845,
      "Ġsomeone": 1846,
      "Ġfield": 1847,
      "ĠSe": 1848,
      "ĠFr": 1849,
      "Ġeat": 1850,
      "aining": 1851,
      "Ġcharacter": 1852,
      "ĠUnited": 1853,
      "illion": 1854,
      "py": 1855,
      "ĠPl": 1856,
      "ression": 1857,
      "izing": 1858,
      "pected": 1859,
      "ina": 1860,
      "abor": 1861,
      "Ġdidn": 1862,
      "de": 1863,
      "Ġsoft": 1864,
      "mp": 1865,
      "ĠCom": 1866,
      "Ġsimilar": 1867,
      "Ġcal": 1868,
      "cle": 1869,
      "Ġcity": 1870,
      "oud": 1871,
      "Ġcurrent": 1872,
      "Ġworks": 1873,
      "uture": 1874,
      "Ġself": 1875,
      "Ġchalleng": 1876,
      "sy": 1877,
      "ring": 1878,
      "apt": 1879,
      "Ġcertain": 1880,
      "Ġcareful": 1881,
      "ission": 1882,
      "Ġtalk": 1883,
      "aper": 1884,
      "Ġtoday": 1885,
      "lished": 1886,
      "Ġdise": 1887,
      "Ġrelations": 1888,
      "----------------": 1889,
      "Ġlater": 1890,
      "Ġmeas": 1891,
      "Ġcomb": 1892,
      "view": 1893,
      "Ġeconom": 1894,
      "Ġdiff": 1895,
      "Ġlim": 1896,
      "Ġexperi": 1897,
      "eral": 1898,
      "oms": 1899,
      "ients": 1900,
      "ploy": 1901,
      "We": 1902,
      "val": 1903,
      "ajor": 1904,
      "ued": 1905,
      "ights": 1906,
      "Ġtimes": 1907,
      "ush": 1908,
      "Ġsystems": 1909,
      "agine": 1910,
      "ohn": 1911,
      "Ġhy": 1912,
      "ney": 1913,
      "Ġpast": 1914,
      "oll": 1915,
      "Ġeveryone": 1916,
      "estions": 1917,
      "Ġ{": 1918,
      "Ġpost": 1919,
      "iding": 1920,
      "Ġdiscuss": 1921,
      "Ġcontrib": 1922,
      "Ġperiod": 1923,
      "more": 1924,
      "Ġimpact": 1925,
      "Ġsurpr": 1926,
      "Ġwa": 1927,
      "Ġavail": 1928,
      "Ġwalk": 1929,
      "ably": 1930,
      "When": 1931,
      "ĠPh": 1932,
      "Ġgovernment": 1933,
      "Ġmeaning": 1934,
      "ĠJapan": 1935,
      "urope": 1936,
      "ucy": 1937,
      "__": 1938,
      "Ġrole": 1939,
      "ĠLe": 1940,
      "Ġans": 1941,
      "ĠEnglish": 1942,
      "olution": 1943,
      "Ġyoung": 1944,
      "Ġleft": 1945,
      "Ġfree": 1946,
      "apter": 1947,
      "istic": 1948,
      "ilities": 1949,
      "Ġintern": 1950,
      "If": 1951,
      "ration": 1952,
      "Ġsugg": 1953,
      "oura": 1954,
      "Ġinflu": 1955,
      "Tim": 1956,
      "rodu": 1957,
      "duced": 1958,
      "ms": 1959,
      "Ġhig": 1960,
      "ument": 1961,
      "Ġshort": 1962,
      "use": 1963,
      "Ġrece": 1964,
      "ĠChrist": 1965,
      "They": 1966,
      "oney": 1967,
      "Ġcountry": 1968,
      "Ġapplic": 1969,
      "Ġexist": 1970,
      "Ġbeaut": 1971,
      "ĠWith": 1972,
      "Ġunique": 1973,
      "Ġmakes": 1974,
      "Ġfast": 1975,
      "ĠMia": 1976,
      "orld": 1977,
      "Ġmor": 1978,
      "Ġconsider": 1979,
      "ged": 1980,
      "Ġfre": 1981,
      "iction": 1982,
      "Ġcourse": 1983,
      "()": 1984,
      "oman": 1985,
      "Ġbusiness": 1986,
      "oint": 1987,
      "ĠEn": 1988,
      "oph": 1989,
      "Ġorder": 1990,
      "Ġbenef": 1991,
      "Ġmusic": 1992,
      "co": 1993,
      "arr": 1994,
      "Ġcentury": 1995,
      "Ġheard": 1996,
      "So": 1997,
      "ĠBob": 1998,
      "Ġfle": 1999,
      "aves": 2000,
      "Ġclose": 2001,
      "ables": 2002,
      "Ġfour": 2003,
      "Ġworking": 2004,
      "Ġgave": 2005,
      "selves": 2006,
      "Ġstep": 2007,
      "idence": 2008,
      "Ġhistor": 2009,
      "Ġinstall": 2010,
      "ster": 2011,
      "ither": 2012,
      "Ġmess": 2013,
      "ĠComm": 2014,
      "ĠAf": 2015,
      "Ġinvest": 2016,
      "Ġjour": 2017,
      "illed": 2018,
      "icult": 2019,
      "Ġclean": 2020,
      "Ġspace": 2021,
      "Ġactiv": 2022,
      "oes": 2023,
      "Ġrespons": 2024,
      "Ġpress": 2025,
      "Ġrepl": 2026,
      "utions": 2027,
      "Ġfull": 2028,
      "though": 2029,
      "Ġview": 2030,
      "ĠEurope": 2031,
      "ately": 2032,
      "wh": 2033,
      "Ġways": 2034,
      "12": 2035,
      "Ġmodern": 2036,
      "ma": 2037,
      "Ġinstead": 2038,
      "Ġgame": 2039,
      "Ġrepresent": 2040,
      "asing": 2041,
      "ĠRes": 2042,
      "Ġwomen": 2043,
      "Ġpie": 2044,
      "Ġ15": 2045,
      "ream": 2046,
      "Ġessential": 2047,
      "ĠOn": 2048,
      "Ġscient": 2049,
      "ĠStates": 2050,
      "Ġfuture": 2051,
      "acy": 2052,
      "Ġhold": 2053,
      "for": 2054,
      "Ġ17": 2055,
      "Ġconcept": 2056,
      "Ġassoci": 2057,
      "ung": 2058,
      "ule": 2059,
      "Ġbegan": 2060,
      "face": 2061,
      "18": 2062,
      "ux": 2063,
      "rel": 2064,
      "An": 2065,
      "ĠUniversity": 2066,
      "Ġmajor": 2067,
      "Ġstay": 2068,
      "Ġprotect": 2069,
      "Ġlow": 2070,
      "Ġteam": 2071,
      "Ġtri": 2072,
      "rew": 2073,
      "Ġstore": 2074,
      "ones": 2075,
      "Ġexperience": 2076,
      "Ġmind": 2077,
      "ĠTr": 2078,
      "Ġvers": 2079,
      "avor": 2080,
      "ived": 2081,
      "Ġpack": 2082,
      "joy": 2083,
      "Ġreally": 2084,
      "Yes": 2085,
      "Ġ--": 2086,
      "Ġaffect": 2087,
      "ledge": 2088,
      "Ġoccur": 2089,
      "Ġsqu": 2090,
      "yn": 2091,
      "ĠX": 2092,
      "Ġmen": 2093,
      "ĠAll": 2094,
      "Ġestab": 2095,
      "Ġcir": 2096,
      "Ġpretty": 2097,
      "Ġnatural": 2098,
      "Ġheart": 2099,
      "of": 2100,
      "ots": 2101,
      "Ġavailable": 2102,
      "rog": 2103,
      "aps": 2104,
      "Ġareas": 2105,
      "Ġask": 2106,
      "mat": 2107,
      "let": 2108,
      "ges": 2109,
      "asc": 2110,
      "ured": 2111,
      "af": 2112,
      "Ġenough": 2113,
      "Ġcommunity": 2114,
      "Ġrelationship": 2115,
      "Ġwee": 2116,
      "Ġjump": 2117,
      "pecial": 2118,
      "Ġreport": 2119,
      "Ġappear": 2120,
      "Ġemb": 2121,
      "Ġtowards": 2122,
      "Ġbegin": 2123,
      "rect": 2124,
      "ĠLet": 2125,
      "alked": 2126,
      "II": 2127,
      "Ġpict": 2128,
      "ĠHer": 2129,
      "Ġmot": 2130,
      "Lily": 2131,
      "min": 2132,
      "ror": 2133,
      "Ġsometimes": 2134,
      "Ġbehav": 2135,
      "Ġgiven": 2136,
      "Ġnice": 2137,
      "ĠSome": 2138,
      "ĠFrom": 2139,
      "Ġdone": 2140,
      "icy": 2141,
      "ser": 2142,
      "Ġhappened": 2143,
      "Ġneeded": 2144,
      "iple": 2145,
      "Ġinit": 2146,
      "Ġplant": 2147,
      "Ġwond": 2148,
      "leep": 2149,
      "Ġliter": 2150,
      "ara": 2151,
      "Ġsat": 2152,
      "ware": 2153,
      "Ġnecess": 2154,
      "Ġexcited": 2155,
      "erc": 2156,
      "utes": 2157,
      "Ġstrateg": 2158,
      "Ġvalue": 2159,
      "ĠBrit": 2160,
      "Ġver": 2161,
      "Ġindust": 2162,
      "icle": 2163,
      "Ġreturn": 2164,
      "Ġwar": 2165,
      "Ġdeterm": 2166,
      "arc": 2167,
      "Ġi": 2168,
      "||": 2169,
      "ĠCol": 2170,
      "Ġtechnology": 2171,
      "osp": 2172,
      "Ġthough": 2173,
      "ended": 2174,
      "Ġ12": 2175,
      "Ġmaint": 2176,
      "Ġauthor": 2177,
      "Ġseen": 2178,
      "Ġlooking": 2179,
      "To": 2180,
      "Ġcost": 2181,
      "ĠLucy": 2182,
      "Ġlay": 2183,
      "Ġprin": 2184,
      "Ġclear": 2185,
      "Ġparent": 2186,
      "Ġdoing": 2187,
      "Ġside": 2188,
      "Ġenjoy": 2189,
      "Ġdays": 2190,
      "Ġ#": 2191,
      "11": 2192,
      "Ġthing": 2193,
      "Ġspecies": 2194,
      "Ġlog": 2195,
      "Ġdescrib": 2196,
      "Ġrock": 2197,
      "omes": 2198,
      "Ġdeep": 2199,
      "lying": 2200,
      "Ġbad": 2201,
      "Ġdepend": 2202,
      "irt": 2203,
      "Ġprofess": 2204,
      "Ġvari": 2205,
      "vious": 2206,
      "ths": 2207,
      "ires": 2208,
      "'ll": 2209,
      "ĠGerm": 2210,
      "atures": 2211,
      "Ġindividuals": 2212,
      "lement": 2213,
      "Ġport": 2214,
      "Ġfiles": 2215,
      "oid": 2216,
      "ĠThen": 2217,
      "Ġquestions": 2218,
      "Ġtur": 2219,
      "ules": 2220,
      "Ġcook": 2221,
      "Ġcolor": 2222,
      "ĠMay": 2223,
      "Ġprevent": 2224,
      "ows": 2225,
      "Ġsuggest": 2226,
      "ales": 2227,
      "ctor": 2228,
      "Ġquick": 2229,
      "chie": 2230,
      "Ġthroughout": 2231,
      "une": 2232,
      "Ġ+": 2233,
      "ze": 2234,
      "Ġdig": 2235,
      "lev": 2236,
      "Ġgreen": 2237,
      "Al": 2238,
      "iving": 2239,
      "Ġ16": 2240,
      "str": 2241,
      "ibility": 2242,
      "ĠAfter": 2243,
      "Ġvol": 2244,
      "Ġpopular": 2245,
      "Ġill": 2246,
      "anced": 2247,
      "Ġneeds": 2248,
      "ĠMom": 2249,
      "ĠJohn": 2250,
      "ony": 2251,
      "ghed": 2252,
      "iful": 2253,
      "Let": 2254,
      "Ġissues": 2255,
      "Ġrecord": 2256,
      "pro": 2257,
      "ann": 2258,
      "Ġresources": 2259,
      "Ġprim": 2260,
      "itten": 2261,
      "Ġdad": 2262,
      "Ġlaughed": 2263,
      "ffic": 2264,
      "arden": 2265,
      "ators": 2266,
      "Ġrecogn": 2267,
      "ching": 2268,
      "Ġrad": 2269,
      "come": 2270,
      "Ġcontext": 2271,
      "ray": 2272,
      "ĠUS": 2273,
      "Ġcause": 2274,
      "ĠIm": 2275,
      "'ve": 2276,
      "Ġtrying": 2277,
      "Ġchanges": 2278,
      "ĠCent": 2279,
      "dle": 2280,
      "Ġelse": 2281,
      "Ġmach": 2282,
      "atives": 2283,
      "Ġarg": 2284,
      "):": 2285,
      "Ġrelig": 2286,
      "ĠWar": 2287,
      "Ġimprove": 2288,
      "Ġface": 2289,
      "Ġfurther": 2290,
      "Ġusually": 2291,
      "iques": 2292,
      "Ġrisk": 2293,
      "Ġpersonal": 2294,
      "Ġdoesn": 2295,
      "Ġnorm": 2296,
      "Ġevent": 2297,
      "There": 2298,
      "aim": 2299,
      "Ġbreak": 2300,
      "Ġsum": 2301,
      "Ġskills": 2302,
      "Ġopportun": 2303,
      "ĠTe": 2304,
      "Ġliving": 2305,
      "ĠMar": 2306,
      "ĊĠĠĠĠĠĠĠĠ": 2307,
      "Ġeducation": 2308,
      "nces": 2309,
      "Ġage": 2310,
      "Ġrather": 2311,
      "ĠAm": 2312,
      "Ġglob": 2313,
      "ĠInst": 2314,
      "ours": 2315,
      "Now": 2316,
      "Ġbehind": 2317,
      "Ġblood": 2318,
      "Ġprint": 2319,
      "Ġcollect": 2320,
      "16": 2321,
      "Ġnetwork": 2322,
      "Ġmeet": 2323,
      "50": 2324,
      "way": 2325,
      "Ġcra": 2326,
      "ĠNo": 2327,
      "Ġprop": 2328,
      "Ġcomes": 2329,
      "aging": 2330,
      "Ġcoll": 2331,
      "ches": 2332,
      "Ġjob": 2333,
      "ĠGod": 2334,
      "Ġwin": 2335,
      "ilt": 2336,
      "Ġ:": 2337,
      "Ġpaper": 2338,
      "Ġsingle": 2339,
      "ĠAfric": 2340,
      "urt": 2341,
      "ising": 2342,
      "Ġcust": 2343,
      ");": 2344,
      "Ġdifficult": 2345,
      "Ġbuilding": 2346,
      "Ġemploy": 2347,
      "most": 2348,
      "ery": 2349,
      "For": 2350,
      "inary": 2351,
      "clusion": 2352,
      "Ġ198": 2353,
      "Ġgrowth": 2354,
      "Ġwhether": 2355,
      "Ġcomplete": 2356,
      "Ġteac": 2357,
      "ĠEar": 2358,
      "lection": 2359,
      "Ġtypes": 2360,
      "Ġabove": 2361,
      "Ġimage": 2362,
      "Ġuser": 2363,
      "Ġknowledge": 2364,
      "Ġlive": 2365,
      "Ġredu": 2366,
      "Ġsentence": 2367,
      "Ġrunning": 2368,
      "icro": 2369,
      "Ġkids": 2370,
      "Ġproblems": 2371,
      "Ġhu": 2372,
      "NA": 2373,
      "Ġfall": 2374,
      "Ġfire": 2375,
      "ĠBl": 2376,
      "Ġbeautiful": 2377,
      "bo": 2378,
      "roll": 2379,
      "Ġsitu": 2380,
      "Ġcells": 2381,
      "Ġdraw": 2382,
      "Ġdisease": 2383,
      "Ġneg": 2384,
      "Ġwarm": 2385,
      "egr": 2386,
      "Ġune": 2387,
      "Ġri": 2388,
      "Ġforest": 2389,
      "Ġdeath": 2390,
      "Ġhigher": 2391,
      "ĠWorld": 2392,
      "Ġregard": 2393,
      "Ġtown": 2394,
      ",âĢĿ": 2395,
      "Ġpath": 2396,
      "Ġonce": 2397,
      "pecially": 2398,
      "Tom": 2399,
      "ails": 2400,
      "orry": 2401,
      "ene": 2402,
      "ott": 2403,
      "He": 2404,
      "Ġachie": 2405,
      "ley": 2406,
      "Ġgroups": 2407,
      "Ch": 2408,
      "Ġbit": 2409,
      "oon": 2410,
      "Ġcut": 2411,
      "thon": 2412,
      "Ġlevels": 2413,
      "ĠSy": 2414,
      "Ġsimple": 2415,
      "etic": 2416,
      "aken": 2417,
      "Ġbar": 2418,
      "Ġfig": 2419,
      "Ġpopulation": 2420,
      "Can": 2421,
      "Ġtransl": 2422,
      "ises": 2423,
      "ĠGo": 2424,
      "Ġblue": 2425,
      "Ġconditions": 2426,
      "Ġx": 2427,
      "Ġaccount": 2428,
      "Ġlisten": 2429,
      "ysis": 2430,
      "Ġrequire": 2431,
      "Ġsky": 2432,
      "aries": 2433,
      "Ġsense": 2434,
      "Ġoffic": 2435,
      "ready": 2436,
      "Ġnature": 2437,
      "Ġarch": 2438,
      "where": 2439,
      "dom": 2440,
      "Ġrespect": 2441,
      "alf": 2442,
      "Ġstories": 2443,
      "Ġang": 2444,
      "Ġemot": 2445,
      "ison": 2446,
      "Ġphot": 2447,
      "light": 2448,
      "ĠAust": 2449,
      "Ġcountries": 2450,
      "Ġlost": 2451,
      "Ġanc": 2452,
      "ached": 2453,
      "Ġmembers": 2454,
      "ruction": 2455,
      "erous": 2456,
      "Ġmodel": 2457,
      "Ġsens": 2458,
      "go": 2459,
      "Ġsoon": 2460,
      "Ġbat": 2461,
      "ĠMed": 2462,
      "Ġaspect": 2463,
      "Ġamount": 2464,
      "ift": 2465,
      "Ġter": 2466,
      "Ġphysical": 2467,
      "Ġmoney": 2468,
      "sequ": 2469,
      "med": 2470,
      "Ġeither": 2471,
      "Ġcreated": 2472,
      "Ġpractice": 2473,
      "Ġhowever": 2474,
      "ask": 2475,
      "âĢľ": 2476,
      "Ġgarden": 2477,
      "ili": 2478,
      "ference": 2479,
      "Ġnight": 2480,
      "Ġfavor": 2481,
      "Ġsleep": 2482,
      "fer": 2483,
      "ips": 2484,
      "Ġchallenges": 2485,
      "Ġjo": 2486,
      "Ġbear": 2487,
      "like": 2488,
      "Ġdom": 2489,
      "Ġblack": 2490,
      "ging": 2491,
      "rown": 2492,
      "Ġresults": 2493,
      "ler": 2494,
      "Ġthemselves": 2495,
      "Ġleast": 2496,
      "Ġhelps": 2497,
      "Ġteach": 2498,
      "Ġpercent": 2499,
      "Ġsn": 2500,
      "Ġ197": 2501,
      "ER": 2502,
      "Ġmarket": 2503,
      "Ġconsum": 2504,
      "Ġalready": 2505,
      "Ġmillion": 2506,
      "hern": 2507,
      "itch": 2508,
      "Ġprob": 2509,
      "Ġtemper": 2510,
      "inally": 2511,
      "Ġinteract": 2512,
      "Ġwalked": 2513,
      "ored": 2514,
      "ister": 2515,
      "Ġreason": 2516,
      "ĠQu": 2517,
      "Ġclos": 2518,
      "Ġsuper": 2519,
      "Is": 2520,
      "fect": 2521,
      "15": 2522,
      "Ġinde": 2523,
      "plic": 2524,
      "Ã©": 2525,
      "Ġplants": 2526,
      "ĠJapanese": 2527,
      "Ġpolitical": 2528,
      "ĠNational": 2529,
      "Ġdoc": 2530,
      "tt": 2531,
      "ude": 2532,
      "Ġfund": 2533,
      "hing": 2534,
      "ĠWest": 2535,
      "ĠAdd": 2536,
      "cy": 2537,
      "ider": 2538,
      "Ġtar": 2539,
      "Ġbooks": 2540,
      "Ġscript": 2541,
      "Ġmid": 2542,
      "ming": 2543,
      "ĠâĢĺ": 2544,
      "Ġtraditional": 2545,
      "ĊĠĠĠĠĠ": 2546,
      "Ġeyes": 2547,
      "Ġespecially": 2548,
      "ctions": 2549,
      "Ġcannot": 2550,
      "pper": 2551,
      "Ġhands": 2552,
      "Ġexpress": 2553,
      "ification": 2554,
      "Ġremember": 2555,
      "Ġactivities": 2556,
      "Ġheav": 2557,
      "Ġcorrect": 2558,
      "iver": 2559,
      "Ġshared": 2560,
      "ĠNow": 2561,
      "Ġgeneral": 2562,
      "ĠPr": 2563,
      "Ġtools": 2564,
      "Ġsource": 2565,
      "Ġwhite": 2566,
      "bed": 2567,
      "ĠApp": 2568,
      "Ġreach": 2569,
      "Ġslow": 2570,
      "Ġur": 2571,
      "ĠAb": 2572,
      "Ġassociated": 2573,
      "`.": 2574,
      "Ġparticip": 2575,
      "eter": 2576,
      "icked": 2577,
      "Ġexperiences": 2578,
      "Ġyet": 2579,
      "ĠEvery": 2580,
      "Ġcy": 2581,
      "Ġsubject": 2582,
      "Ġaccording": 2583,
      "Ġsorry": 2584,
      "aling": 2585,
      "urity": 2586,
      "ae": 2587,
      "Ġlots": 2588,
      "pping": 2589,
      "Ġcapt": 2590,
      "Ġtechniques": 2591,
      "Ġrange": 2592,
      "Ġculture": 2593,
      "Ġonline": 2594,
      "ike": 2595,
      "Ġwhole": 2596,
      "Ġinn": 2597,
      "yle": 2598,
      "30": 2599,
      "ĠCar": 2600,
      "Ġevents": 2601,
      "Ġsize": 2602,
      "ĠDo": 2603,
      "know": 2604,
      "Ġensure": 2605,
      "rep": 2606,
      "17": 2607,
      "cul": 2608,
      "Ġhelped": 2609,
      "Ġcultural": 2610,
      "Ġste": 2611,
      "Ġsepar": 2612,
      "Ġ}": 2613,
      "Ġbug": 2614,
      "play": 2615,
      "ival": 2616,
      "ai": 2617,
      "Ġbring": 2618,
      "Ġstop": 2619,
      "gress": 2620,
      "Ġscience": 2621,
      "Ġdest": 2622,
      "Ġbal": 2623,
      "Ġanswer": 2624,
      "Ġallows": 2625,
      "Ġtable": 2626,
      "Ġanything": 2627,
      "Ġagre": 2628,
      "Ġtravel": 2629,
      "Ġcommunities": 2630,
      "Ġeverything": 2631,
      "Ġfell": 2632,
      "Ġann": 2633,
      "Ġmultiple": 2634,
      "ivil": 2635,
      "ites": 2636,
      "Ġtrue": 2637,
      "urch": 2638,
      "Ġencoura": 2639,
      "Ġcompet": 2640,
      "ĊĊĠ": 2641,
      "Ġnut": 2642,
      "Ġpriv": 2643,
      "ply": 2644,
      "ĠWhile": 2645,
      "inux": 2646,
      "pite": 2647,
      "Ġpay": 2648,
      "Ġlives": 2649,
      "Ġclim": 2650,
      "ption": 2651,
      "ault": 2652,
      "Ġfarm": 2653,
      "Ġreading": 2654,
      "Ġtaking": 2655,
      "Ġopened": 2656,
      "Ġcomputer": 2657,
      "imately": 2658,
      "Ġwide": 2659,
      "Ġlikely": 2660,
      "Ġvo": 2661,
      "Ġconc": 2662,
      "Ġunex": 2663,
      "ww": 2664,
      "porary": 2665,
      "Ġsuccessful": 2666,
      "ĠGe": 2667,
      "Ġitself": 2668,
      "Ġda": 2669,
      "atory": 2670,
      "ĠNe": 2671,
      "Ġdam": 2672,
      "Ġwrite": 2673,
      "Ġincrease": 2674,
      "Ġ196": 2675,
      "Ġtreatment": 2676,
      "Ġetc": 2677,
      "Ġcool": 2678,
      "Ġla": 2679,
      "Ġdoor": 2680,
      "eds": 2681,
      "Ġcreating": 2682,
      "ball": 2683,
      "icate": 2684,
      "reci": 2685,
      "Ġtou": 2686,
      "ground": 2687,
      "Ġ14": 2688,
      "rought": 2689,
      "Ġmedia": 2690,
      "Ġhost": 2691,
      "Ġengine": 2692,
      "Ġce": 2693,
      "Ġhot": 2694,
      "Ġcode": 2695,
      "aced": 2696,
      "Ġemp": 2697,
      "Ġcustom": 2698,
      "Ġfactors": 2699,
      "ĠInt": 2700,
      "orpor": 2701,
      "`,": 2702,
      "ĠMr": 2703,
      "Ġemerg": 2704,
      "igns": 2705,
      "het": 2706,
      "ĠEm": 2707,
      "isc": 2708,
      "itary": 2709,
      "denly": 2710,
      "AT": 2711,
      "lt": 2712,
      "ĠNorth": 2713,
      "nal": 2714,
      "ĠMan": 2715,
      "Ġeffic": 2716,
      "Ġsal": 2717,
      "ãģ®": 2718,
      "Ġshap": 2719,
      "Ġpred": 2720,
      "Ġfix": 2721,
      "ils": 2722,
      "Ġbrain": 2723,
      "Ġoriginal": 2724,
      "ĠSouth": 2725,
      "Ġharm": 2726,
      "Ġparts": 2727,
      "rench": 2728,
      "unt": 2729,
      "ublic": 2730,
      "Ġwood": 2731,
      "Ġentire": 2732,
      "Ġactually": 2733,
      "At": 2734,
      "No": 2735,
      "?<|": 2736,
      "chan": 2737,
      "Ġvide": 2738,
      "ram": 2739,
      "Ġfrequ": 2740,
      "Ġunexpected": 2741,
      "iol": 2742,
      "Ġaud": 2743,
      "Ġcry": 2744,
      "elling": 2745,
      "Ġsym": 2746,
      "ands": 2747,
      "Ġlate": 2748,
      "Ġmaterials": 2749,
      "Ġmiss": 2750,
      "Ġsong": 2751,
      "Ġconsidered": 2752,
      "Ġinstance": 2753,
      "Ġsociety": 2754,
      "gest": 2755,
      "oor": 2756,
      "dy": 2757,
      "ume": 2758,
      "lam": 2759,
      "Ġcop": 2760,
      "Ġwon": 2761,
      "Ġwritten": 2762,
      "Ġfru": 2763,
      "mber": 2764,
      "Ġdifference": 2765,
      "Ġappreci": 2766,
      "fact": 2767,
      "Ġvisit": 2768,
      "Ġadvent": 2769,
      "Ġcompany": 2770,
      "Ġheld": 2771,
      "Ġpractices": 2772,
      "Ġoffer": 2773,
      "14": 2774,
      "Ġyourself": 2775,
      "Ġrout": 2776,
      "Ġhistorical": 2777,
      "oo": 2778,
      "Ġled": 2779,
      "ĠBritish": 2780,
      "Ġmethods": 2781,
      "Ġdark": 2782,
      "eb": 2783,
      "Ġfive": 2784,
      "ĠIntern": 2785,
      "Ġpositive": 2786,
      "agn": 2787,
      "ĊĊĊ": 2788,
      "Ġservices": 2789,
      "aches": 2790,
      "Ġcheck": 2791,
      "Why": 2792,
      "Ġelements": 2793,
      "Ġbelieve": 2794,
      "ems": 2795,
      "Ġabs": 2796,
      "ety": 2797,
      "standing": 2798,
      "Ġshowed": 2799,
      "Ġintegr": 2800,
      "Ġevidence": 2801,
      "Ġregular": 2802,
      "Ġ****": 2803,
      "Ġapproach": 2804,
      "That": 2805,
      "Ġglobal": 2806,
      "Ex": 2807,
      "Ġimplement": 2808,
      "Ġlines": 2809,
      "Ġmount": 2810,
      "Ġmatter": 2811,
      "Ġnecessary": 2812,
      "sych": 2813,
      "Ġinsp": 2814,
      "Ġquickly": 2815,
      "empt": 2816,
      "Ġvalues": 2817,
      "Ġyes": 2818,
      "set": 2819,
      "uments": 2820,
      "Ġaction": 2821,
      "inks": 2822,
      "Thank": 2823,
      "Ġcases": 2824,
      "Ġfoot": 2825,
      "Ġnational": 2826,
      "Ġmass": 2827,
      "ulations": 2828,
      "Ġge": 2829,
      "Ġparents": 2830,
      "ios": 2831,
      "Ġgetting": 2832,
      "gen": 2833,
      "ĠUnder": 2834,
      "Ġsto": 2835,
      "rap": 2836,
      "roud": 2837,
      "Ġrights": 2838,
      "roduction": 2839,
      "orks": 2840,
      "Ġwriting": 2841,
      "ĠâĢĶ": 2842,
      "Ġut": 2843,
      "Ġproduction": 2844,
      "Ġprovides": 2845,
      "Ġrain": 2846,
      "cing": 2847,
      "Ġchem": 2848,
      "Ġlab": 2849,
      "aught": 2850,
      "inating": 2851,
      "Ġfail": 2852,
      "```": 2853,
      "zy": 2854,
      "ample": 2855,
      "Ġmanagement": 2856,
      "nds": 2857,
      "Ġstates": 2858,
      "Ġtaken": 2859,
      "Ġquality": 2860,
      "part": 2861,
      "pos": 2862,
      "Ġlower": 2863,
      "Ġstreng": 2864,
      "Ġcouldn": 2865,
      "ĠMy": 2866,
      "Ġrefer": 2867,
      "rict": 2868,
      "Ġincreasing": 2869,
      "Ġcirc": 2870,
      "verage": 2871,
      "Ġsearch": 2872,
      "Ġuses": 2873,
      "ĠAmerica": 2874,
      "Ġsubst": 2875,
      "ĠMe": 2876,
      "fort": 2877,
      "ription": 2878,
      "Ġoutput": 2879,
      "Ġsurround": 2880,
      "Ġaccept": 2881,
      "Ġloss": 2882,
      "Ġtarget": 2883,
      "Ġexploring": 2884,
      "Ġcritical": 2885,
      "mon": 2886,
      "lex": 2887,
      "Ġswe": 2888,
      "Ġservice": 2889,
      "uff": 2890,
      "ĠPe": 2891,
      "ana": 2892,
      "Ġbelow": 2893,
      "Ġspir": 2894,
      "fs": 2895,
      "Ġforms": 2896,
      "Ġstudies": 2897,
      "Ġparty": 2898,
      "ĠCont": 2899,
      "Ġspeak": 2900,
      "Ġhalf": 2901,
      "Ġexact": 2902,
      "Ġstra": 2903,
      "Ġunit": 2904,
      "Ġanymore": 2905,
      "Ġcompon": 2906,
      "ĠEarth": 2907,
      "acks": 2908,
      "ĠStud": 2909,
      "Ġtrees": 2910,
      "Ġbuilt": 2911,
      "ĠCo": 2912,
      "uted": 2913,
      "Ġexec": 2914,
      "used": 2915,
      "Ġmother": 2916,
      "ades": 2917,
      "ĠYork": 2918,
      "Ġcontinue": 2919,
      "Ġworked": 2920,
      "Ġones": 2921,
      "Ġeffects": 2922,
      "Ġalmost": 2923,
      "ccording": 2924,
      "Ġproducts": 2925,
      "ĠWhere": 2926,
      "Ġfair": 2927,
      "itation": 2928,
      "Ġ30": 2929,
      "Ġdeb": 2930,
      "Ġhappen": 2931,
      "rug": 2932,
      "Ġresearc": 2933,
      "Ġsimply": 2934,
      "yl": 2935,
      "Ġbed": 2936,
      "ĠGu": 2937,
      "iles": 2938,
      "Ġbehavior": 2939,
      "Ġbroad": 2940,
      "ĠDes": 2941,
      "200": 2942,
      "Ġsite": 2943,
      "reg": 2944,
      "Ġaim": 2945,
      "based": 2946,
      "ĠAmy": 2947,
      "13": 2948,
      "uly": 2949,
      "Ġclaim": 2950,
      "Ġice": 2951,
      "Ġvalu": 2952,
      "Ġeasy": 2953,
      "yond": 2954,
      "Ġfavorite": 2955,
      "Ġnews": 2956,
      "Ġincreased": 2957,
      "ĠCal": 2958,
      "Ġjourney": 2959,
      "Ġstri": 2960,
      "aur": 2961,
      "ĠRep": 2962,
      "AN": 2963,
      "Ġconsist": 2964,
      "ĠThrough": 2965,
      "Ġregion": 2966,
      "OS": 2967,
      "Ġideas": 2968,
      "key": 2969,
      "Ġseems": 2970,
      "ober": 2971,
      "Ġmix": 2972,
      "Ġdeveloped": 2973,
      "gged": 2974,
      "Ġexerc": 2975,
      "Ġreflect": 2976,
      ".)": 2977,
      "Ġenh": 2978,
      "Ġtakes": 2979,
      "Ġrelated": 2980,
      "adem": 2981,
      "Ġdistrib": 2982,
      "ID": 2983,
      "Ġsil": 2984,
      "ĠFrench": 2985,
      "And": 2986,
      "Ġeth": 2987,
      ":**": 2988,
      "ops": 2989,
      "Ġleading": 2990,
      "Ġtot": 2991,
      "hold": 2992,
      "ducing": 2993,
      "Ġrecomm": 2994,
      "ĠGen": 2995,
      "Ġhimself": 2996,
      "ĠAss": 2997,
      "Ġcamp": 2998,
      "Ġrev": 2999,
      "oe": 3000,
      "ĠSoc": 3001,
      "Ġproud": 3002,
      "Ġbur": 3003,
      "itting": 3004,
      "Ġmedical": 3005,
      "Ġdemon": 3006,
      "ying": 3007,
      "itionally": 3008,
      "Ġattention": 3009,
      "Ġprevious": 3010,
      "istance": 3011,
      "itution": 3012,
      "Ġhealthy": 3013,
      "ilos": 3014,
      "ĠKing": 3015,
      "Ġidentify": 3016,
      "emporary": 3017,
      "Ġstructure": 3018,
      "hib": 3019,
      "Ġflew": 3020,
      "enn": 3021,
      "Ġmachine": 3022,
      "ĠGree": 3023,
      "Ġfly": 3024,
      "Ġaltern": 3025,
      "Ġperformance": 3026,
      "Ġanalysis": 3027,
      "iced": 3028,
      "Ġbirds": 3029,
      "ĊĠĠĠĠĠĠĠĠĠĠĠ": 3030,
      "terns": 3031,
      "Ġperfect": 3032,
      "Ġterms": 3033,
      "upp": 3034,
      "ãģĦ": 3035,
      "lebr": 3036,
      "aving": 3037,
      "Ġdesigned": 3038,
      "Ġeconomic": 3039,
      "ĠCanad": 3040,
      "Ġcontinued": 3041,
      "Ġadapt": 3042,
      "astic": 3043,
      "Ġability": 3044,
      "irth": 3045,
      "Ġfeeling": 3046,
      "Ġfost": 3047,
      "Ġfight": 3048,
      "Ġsex": 3049,
      "che": 3050,
      "lict": 3051,
      "Ġcharacters": 3052,
      "Ġshows": 3053,
      "enced": 3054,
      "Ġanaly": 3055,
      "ĠJust": 3056,
      "Ġlonger": 3057,
      "Ġinnov": 3058,
      "itle": 3059,
      "Ġseek": 3060,
      "ĠPol": 3061,
      "Ġmoment": 3062,
      "Ġcommunication": 3063,
      "Ġvaluable": 3064,
      "umb": 3065,
      "Ġshell": 3066,
      "Ġparticularly": 3067,
      "Ġactivity": 3068,
      "arily": 3069,
      "###": 3070,
      "Ġcold": 3071,
      "Ġcake": 3072,
      "ĠAct": 3073,
      "ĠHist": 3074,
      "idge": 3075,
      "Ġprote": 3076,
      "Ġgames": 3077,
      "pri": 3078,
      "Ġrequired": 3079,
      "Ġwrong": 3080,
      "oke": 3081,
      "Ġreduce": 3082,
      "AS": 3083,
      "ama": 3084,
      "Ġsust": 3085,
      "Ġcontent": 3086,
      "Ġcoun": 3087,
      "On": 3088,
      "Ġsurface": 3089,
      "overed": 3090,
      "Ġroot": 3091,
      "Ġ100": 3092,
      "Ġenvironmental": 3093,
      "Ġfeatures": 3094,
      "Ġturned": 3095,
      "Ġexamples": 3096,
      "ership": 3097,
      "Ġwall": 3098,
      "acter": 3099,
      "ĠPres": 3100,
      "Ġ13": 3101,
      "hood": 3102,
      "itor": 3103,
      "Ġthinking": 3104,
      "Ġindepend": 3105,
      "ES": 3106,
      "Ġhours": 3107,
      "Ġcruc": 3108,
      "Ġsurprised": 3109,
      "25": 3110,
      "Ġpage": 3111,
      "Ġleaves": 3112,
      "Ġancient": 3113,
      "//": 3114,
      "avig": 3115,
      "Ġselect": 3116,
      "Ġprec": 3117,
      "Ġextra": 3118,
      "room": 3119,
      "ĠMore": 3120,
      "Ġprograms": 3121,
      "Con": 3122,
      "ded": 3123,
      "izations": 3124,
      "ervation": 3125,
      "Ġclimate": 3126,
      "isions": 3127,
      "Ġstandard": 3128,
      "ĠKe": 3129,
      "Ġposition": 3130,
      "reme": 3131,
      "Ġbrought": 3132,
      "ĠAustral": 3133,
      "Ġhurt": 3134,
      "pid": 3135,
      "head": 3136,
      "Ġpicture": 3137,
      "iment": 3138,
      "onse": 3139,
      "Ġminim": 3140,
      "ĠYour": 3141,
      "Ġflowers": 3142,
      "Ġinterp": 3143,
      "Ġcross": 3144,
      "Ġsymb": 3145,
      "Ġwild": 3146,
      "Ġeffective": 3147,
      "edi": 3148,
      "Ġhor": 3149,
      "Ġadult": 3150,
      "Ġnod": 3151,
      "Ġcolors": 3152,
      "ender": 3153,
      "Ġdoll": 3154,
      "kay": 3155,
      "Ġversion": 3156,
      "Ġnumbers": 3157,
      "Ġpicked": 3158,
      "After": 3159,
      "Ġrate": 3160,
      "Ġprovided": 3161,
      "Mom": 3162,
      "ensive": 3163,
      "att": 3164,
      "Ġofficial": 3165,
      "Ġfasc": 3166,
      "Ġpowerful": 3167,
      "Ġ194": 3168,
      "name": 3169,
      "Ġisn": 3170,
      "Section": 3171,
      "Ġpromot": 3172,
      "Ġhumans": 3173,
      "uel": 3174,
      "Ġmechan": 3175,
      "Ġsources": 3176,
      "gy": 3177,
      "oday": 3178,
      "Ġseries": 3179,
      "Ġstress": 3180,
      "Ġshiny": 3181,
      "Ġarticle": 3182,
      "By": 3183,
      "Ġmicro": 3184,
      "ancial": 3185,
      "bor": 3186,
      "Ġfollowed": 3187,
      "Ġrace": 3188,
      "Ġtast": 3189,
      "Ġreact": 3190,
      "Ġweek": 3191,
      "Ġoil": 3192,
      "Ġcancer": 3193,
      "Ġsea": 3194,
      "Ġspread": 3195,
      "Ġindustry": 3196,
      "Ġcontain": 3197,
      "Ġinvolved": 3198,
      "Ġtraining": 3199,
      "Ġopportunities": 3200,
      "rast": 3201,
      "ocks": 3202,
      "itted": 3203,
      "Ġpatterns": 3204,
      "bon": 3205,
      "aff": 3206,
      "Ġbab": 3207,
      "Ġcompan": 3208,
      "duct": 3209,
      "ĠRem": 3210,
      "ĠAnna": 3211,
      "hel": 3212,
      "Ġbenefits": 3213,
      "Ġskin": 3214,
      "ken": 3215,
      "itect": 3216,
      "ologies": 3217,
      "Ġaddition": 3218,
      "ope": 3219,
      "Ġplease": 3220,
      "Ġresearchers": 3221,
      "Ġsurv": 3222,
      "Im": 3223,
      "illi": 3224,
      "Ġattempt": 3225,
      "earch": 3226,
      "Ġwebs": 3227,
      "ius": 3228,
      "ography": 3229,
      "ĠCons": 3230,
      "Ġcelebr": 3231,
      "ĠPar": 3232,
      "Ġfeed": 3233,
      "ĠEd": 3234,
      "mar": 3235,
      "phas": 3236,
      "Ġcrucial": 3237,
      "Ġloud": 3238,
      "time": 3239,
      "ptoms": 3240,
      "Ġtransform": 3241,
      "unch": 3242,
      "ĠHere": 3243,
      "Ġmedic": 3244,
      "ĠJew": 3245,
      "Ġarri": 3246,
      "order": 3247,
      "Ġsuff": 3248,
      "file": 3249,
      "Ġpoints": 3250,
      "Ġoverall": 3251,
      "Ġdecl": 3252,
      "Ġdiv": 3253,
      "Ġissue": 3254,
      "ĠPer": 3255,
      "Ġstick": 3256,
      "{}": 3257,
      "Ġbeyond": 3258,
      "Ġnovel": 3259,
      "Ġstrategies": 3260,
      "Re": 3261,
      "ancing": 3262,
      "ĠWhy": 3263,
      "cks": 3264,
      "Ġserver": 3265,
      "Ġhope": 3266,
      "pose": 3267,
      "Ġsett": 3268,
      "Ġpublished": 3269,
      "Ġincorpor": 3270,
      "Ġkept": 3271,
      "Ġmagic": 3272,
      "ban": 3273,
      "Ġdemonstr": 3274,
      "elcome": 3275,
      "Ġrecent": 3276,
      "Ġdiverse": 3277,
      "Ġpressure": 3278,
      "Ġimportance": 3279,
      "Ġearli": 3280,
      "ummy": 3281,
      "Ġproduce": 3282,
      "Ġviol": 3283,
      "vere": 3284,
      "iation": 3285,
      "Ġsoftware": 3286,
      "Ġefforts": 3287,
      "urs": 3288,
      "Ġconcer": 3289,
      "rugg": 3290,
      "Ġmental": 3291,
      "Ġpolicy": 3292,
      "ĠGerman": 3293,
      "ĠĠĊ": 3294,
      "=\"": 3295,
      "ĠChar": 3296,
      "Ġconvers": 3297,
      "Ġdefin": 3298,
      "Ġprobably": 3299,
      "Ġobser": 3300,
      "Ġking": 3301,
      "Ġconfig": 3302,
      "ĠSim": 3303,
      "aly": 3304,
      "rand": 3305,
      "Ġdang": 3306,
      "Ġlat": 3307,
      "Ġcoming": 3308,
      "Ġ?": 3309,
      "Ġmention": 3310,
      "olic": 3311,
      "Ġperspect": 3312,
      "icles": 3313,
      "net": 3314,
      "Ġdyn": 3315,
      "anks": 3316,
      "Ġmeasure": 3317,
      "Ġ11": 3318,
      "Ġquite": 3319,
      "gar": 3320,
      "Ġwatch": 3321,
      "word": 3322,
      "ole": 3323,
      "Ġaware": 3324,
      "minist": 3325,
      "ĠRuss": 3326,
      "Ġlooks": 3327,
      "Ġmonths": 3328,
      "Ġnormal": 3329,
      "Ġweight": 3330,
      "Ġinitial": 3331,
      "Be": 3332,
      "Ġfem": 3333,
      "rig": 3334,
      "Ġsounds": 3335,
      "istics": 3336,
      "Ġanimal": 3337,
      "ĠMany": 3338,
      "Ġready": 3339,
      "erson": 3340,
      "Ġvia": 3341,
      "IN": 3342,
      "Ġappe": 3343,
      "back": 3344,
      "ilies": 3345,
      "Ġadded": 3346,
      "Ġdiet": 3347,
      "',": 3348,
      "works": 3349,
      "inated": 3350,
      "ĠSec": 3351,
      "Ġprocesses": 3352,
      "Ġfat": 3353,
      "Ġtail": 3354,
      "Ġdaily": 3355,
      "Ġsand": 3356,
      "Ġvoice": 3357,
      "Ġtheory": 3358,
      "Ġmovement": 3359,
      "inct": 3360,
      "Ġhelping": 3361,
      "Ġstudent": 3362,
      "Ġachieve": 3363,
      "Ġschools": 3364,
      "lege": 3365,
      "Ġ25": 3366,
      "org": 3367,
      "iring": 3368,
      "ties": 3369,
      "Ġvideo": 3370,
      "Ġprogress": 3371,
      "igen": 3372,
      "Ġestablished": 3373,
      "Ġago": 3374,
      "Ġalone": 3375,
      "lands": 3376,
      "Ġmilitary": 3377,
      "Ġthreat": 3378,
      "ĠIP": 3379,
      "rim": 3380,
      "Ġusers": 3381,
      "Ġdream": 3382,
      "Ġgrowing": 3383,
      "ifically": 3384,
      "Ġheat": 3385,
      "ĠChristian": 3386,
      "Ġfront": 3387,
      "Ġstrugg": 3388,
      "Ġincludes": 3389,
      "Ġamaz": 3390,
      "ament": 3391,
      "Ġcollabor": 3392,
      "Ġspirit": 3393,
      "Ġord": 3394,
      "ellow": 3395,
      "ĠFl": 3396,
      "hy": 3397,
      "Ġdro": 3398,
      "Step": 3399,
      "AR": 3400,
      "ĠComp": 3401,
      "Ġlibr": 3402,
      "Ġroad": 3403,
      "rapy": 3404,
      "Ġpatients": 3405,
      "Ġnoise": 3406,
      "Ġdecision": 3407,
      "ĠDr": 3408,
      "Ġworry": 3409,
      "Ġreligious": 3410,
      "Ġaspects": 3411,
      "Ġstopped": 3412,
      "Ġvisual": 3413,
      "Ġflu": 3414,
      "Ġdocument": 3415,
      "erve": 3416,
      "Ġexpect": 3417,
      "Ġminutes": 3418,
      "Ġneigh": 3419,
      "Ġanyone": 3420,
      "board": 3421,
      "Ġhair": 3422,
      "Ġrelationships": 3423,
      "Ġtotal": 3424,
      "Ġoptions": 3425,
      "Ġsold": 3426,
      "Ġshape": 3427,
      "Ġseason": 3428,
      "oming": 3429,
      "Ġgreater": 3430,
      "Ġcard": 3431,
      "Ġdevice": 3432,
      "Ġ\\": 3433,
      "ests": 3434,
      "Ġrules": 3435,
      "uth": 3436,
      "Ġappropri": 3437,
      "ĠMin": 3438,
      "ĠEuropean": 3439,
      "osing": 3440,
      "ĠArt": 3441,
      "Ġ>": 3442,
      "eration": 3443,
      "Ġrich": 3444,
      "22": 3445,
      "Ġgrad": 3446,
      "Ġautom": 3447,
      "Ġbasic": 3448,
      "Ġveget": 3449,
      "Ġlif": 3450,
      "Ġsharing": 3451,
      "haps": 3452,
      "atively": 3453,
      "Ġthanked": 3454,
      "just": 3455,
      "Ġinternational": 3456,
      "resh": 3457,
      "Ġble": 3458,
      "Ġhon": 3459,
      "Ġchapter": 3460,
      "Ġdou": 3461,
      "Ġsteps": 3462,
      "chol": 3463,
      "Ġdrug": 3464,
      "Ġlaugh": 3465,
      "Ġpsych": 3466,
      "Ġbright": 3467,
      "Ġgas": 3468,
      "Ġdirectory": 3469,
      "Ġdevices": 3470,
      "Ġdigital": 3471,
      "Ġsud": 3472,
      "inese": 3473,
      "load": 3474,
      "Ġfather": 3475,
      "Ġcivil": 3476,
      "Ġwonder": 3477,
      "ĠII": 3478,
      "Ġplaces": 3479,
      "Ġprimary": 3480,
      "Ġinput": 3481,
      "nding": 3482,
      "Ġmouse": 3483,
      "uddenly": 3484,
      "Ġtax": 3485,
      "Ġphilos": 3486,
      "Ġapplications": 3487,
      "tr": 3488,
      "Ġresponse": 3489,
      "Ġpiece": 3490,
      "ĠHealth": 3491,
      "rote": 3492,
      "Ġreve": 3493,
      "Ġdeg": 3494,
      "Ġinfluence": 3495,
      "Ġbase": 3496,
      "Ġsafety": 3497,
      "ength": 3498,
      "Ġinvestig": 3499,
      "Ġsix": 3500,
      "Ġsustain": 3501,
      "Ġfinancial": 3502,
      "ham": 3503,
      "Ġfilled": 3504,
      "Ġnothing": 3505,
      "rehe": 3506,
      "Ġaccur": 3507,
      "Ġprep": 3508,
      "ON": 3509,
      "Ġremains": 3510,
      "ĠPart": 3511,
      "Ġproviding": 3512,
      "Ġcaused": 3513,
      "isms": 3514,
      "My": 3515,
      "Ġbirth": 3516,
      "Ġcand": 3517,
      "Ġoffers": 3518,
      "Ġsymptoms": 3519,
      "ython": 3520,
      "Ġbuy": 3521,
      "Ġdry": 3522,
      "Ġcontemporary": 3523,
      "Ġthird": 3524,
      "Ġhear": 3525,
      "Ġleave": 3526,
      "eper": 3527,
      "atform": 3528,
      "ĠChina": 3529,
      "known": 3530,
      "ĠBr": 3531,
      "Ġreview": 3532,
      "ously": 3533,
      "ederal": 3534,
      "Ġscreen": 3535,
      "Ġbecomes": 3536,
      "ãĢ": 3537,
      "Ġperm": 3538,
      "ciples": 3539,
      "Ġmaintain": 3540,
      "Ġconflict": 3541,
      "ĠBud": 3542,
      "Ġtemperature": 3543,
      "Ġintro": 3544,
      "Ġinvolves": 3545,
      "ension": 3546,
      "Ġroll": 3547,
      "Ġtool": 3548,
      "illing": 3549,
      "inc": 3550,
      "Ġindic": 3551,
      "ams": 3552,
      "ĠSw": 3553,
      "itude": 3554,
      "uz": 3555,
      "ibr": 3556,
      "ino": 3557,
      "Ġjumped": 3558,
      "Ġconduct": 3559,
      "Ġhugged": 3560,
      "ille": 3561,
      "Ġcloser": 3562,
      "Ġcurious": 3563,
      "Ġapplication": 3564,
      "ustr": 3565,
      "Ġemphas": 3566,
      "Ġrob": 3567,
      "Ġful": 3568,
      "itute": 3569,
      "Ġestablish": 3570,
      "care": 3571,
      "Ġbow": 3572,
      "ores": 3573,
      "aged": 3574,
      "Ġrequires": 3575,
      "Ġcarry": 3576,
      "Ġdrink": 3577,
      "Ġhop": 3578,
      "ceed": 3579,
      "Ġforce": 3580,
      "Ġcompared": 3581,
      "Ġlocated": 3582,
      "Ġmemory": 3583,
      "irm": 3584,
      "agement": 3585,
      "Ġdirectly": 3586,
      "Ġpick": 3587,
      "Ġbreat": 3588,
      "Ġtrust": 3589,
      "Ġbrother": 3590,
      "Ġconnection": 3591,
      "Ġsecurity": 3592,
      "rite": 3593,
      "Ġast": 3594,
      "izes": 3595,
      "Ġremain": 3596,
      "Ġegg": 3597,
      "uries": 3598,
      "Ġcapital": 3599,
      "ĠDid": 3600,
      "Ġcover": 3601,
      "Ġnavig": 3602,
      "ĠCour": 3603,
      "osis": 3604,
      "odies": 3605,
      "Ġforward": 3606,
      "Here": 3607,
      "ĠAlex": 3608,
      "Ġdisplay": 3609,
      "ounds": 3610,
      "Ġcit": 3611,
      "Ġtend": 3612,
      "Ġrelev": 3613,
      "Ġadditional": 3614,
      "Ġwindow": 3615,
      "Ġsequ": 3616,
      "rag": 3617,
      "Ġ50": 3618,
      "ha": 3619,
      "Ġframe": 3620,
      "Ġunc": 3621,
      "Ġbag": 3622,
      "Ġexactly": 3623,
      "ãģ§": 3624,
      "ĠRec": 3625,
      "Ġregarding": 3626,
      "Ġfascinating": 3627,
      "Ġconnections": 3628,
      "Ġoptim": 3629,
      "Ġcatch": 3630,
      "itty": 3631,
      "Ġscientists": 3632,
      "ferences": 3633,
      "Ġfamilies": 3634,
      "Ġcondition": 3635,
      "Ġadop": 3636,
      "Ġappl": 3637,
      "Ġ`/": 3638,
      "hem": 3639,
      "alu": 3640,
      "Ġdeveloping": 3641,
      "Ġwalking": 3642,
      "term": 3643,
      "Ġvirt": 3644,
      "vey": 3645,
      "raft": 3646,
      "'d": 3647,
      "Ġfilm": 3648,
      "itc": 3649,
      "asons": 3650,
      "Ġreached": 3651,
      "Ġcou": 3652,
      "Ġassess": 3653,
      "ĠMus": 3654,
      "Ġfrog": 3655,
      "ĠChinese": 3656,
      "Ġmoral": 3657,
      "Ġlink": 3658,
      "bin": 3659,
      "ĠState": 3660,
      "ĠJack": 3661,
      "ief": 3662,
      "Ġarchitect": 3663,
      "ucle": 3664,
      "omet": 3665,
      "Ġresponsible": 3666,
      "dd": 3667,
      "Ġfit": 3668,
      "Ġchoose": 3669,
      "enge": 3670,
      "ĠAnt": 3671,
      "Ġtransport": 3672,
      "Ġnames": 3673,
      "Ġchemical": 3674,
      "Ġincluded": 3675,
      "Ġgenerally": 3676,
      "Ġing": 3677,
      "Ġtall": 3678,
      "Ġguid": 3679,
      "Ġdiscover": 3680,
      "Ġmis": 3681,
      "ancy": 3682,
      "Ġdiscovered": 3683,
      "useum": 3684,
      "encies": 3685,
      "Ġscientific": 3686,
      "âĢ¦": 3687,
      "Ġlargest": 3688,
      "Ġoption": 3689,
      "Ġavoid": 3690,
      "rab": 3691,
      "artment": 3692,
      "ronic": 3693,
      "Ġexcept": 3694,
      "Ġactive": 3695,
      "Ġjud": 3696,
      "ĠWell": 3697,
      "Ġgrass": 3698,
      "Ġsus": 3699,
      "Ġpatient": 3700,
      "Ġgrand": 3701,
      "ĠTw": 3702,
      "Ġecho": 3703,
      "Ġwhose": 3704,
      "Ġfinal": 3705,
      "21": 3706,
      "Ġrele": 3707,
      "sing": 3708,
      "book": 3709,
      "irus": 3710,
      "oration": 3711,
      "ĊĠĠĠĠĠĠĠĠĠĠĠĠ": 3712,
      "Ġupd": 3713,
      "ĠLinux": 3714,
      "Ġboat": 3715,
      "Ġwrote": 3716,
      "ĠAug": 3717,
      "Ġearth": 3718,
      "Ġrab": 3719,
      "Then": 3720,
      "ãģ«": 3721,
      "Ġfear": 3722,
      "Ġcast": 3723,
      "IS": 3724,
      "Ġwait": 3725,
      "Ġcontact": 3726,
      "cell": 3727,
      "Ġdress": 3728,
      "ufact": 3729,
      "vert": 3730,
      "Ġtouch": 3731,
      "Ġdial": 3732,
      "ĠTheir": 3733,
      "Ġimagine": 3734,
      "Ġlarger": 3735,
      "Ġbrave": 3736,
      "Ġep": 3737,
      "cles": 3738,
      "Ġpieces": 3739,
      "Ġund": 3740,
      "ls": 3741,
      "23": 3742,
      "ĠRoman": 3743,
      "Ġserve": 3744,
      "Ġinteresting": 3745,
      "Ġeating": 3746,
      "unny": 3747,
      "\")": 3748,
      "ĠNot": 3749,
      "ellig": 3750,
      "Ġbelong": 3751,
      "ĠAc": 3752,
      "Ġpeace": 3753,
      "ĠReg": 3754,
      "Ġcompanies": 3755,
      "ĠOver": 3756,
      "Ġtrack": 3757,
      "Ġfamous": 3758,
      "ĠCity": 3759,
      "Ġhat": 3760,
      "Ġinj": 3761,
      "While": 3762,
      "Ġfa": 3763,
      "Ġcontinu": 3764,
      "://": 3765,
      "rial": 3766,
      "Ġsection": 3767,
      "24": 3768,
      "ĠDep": 3769,
      "airs": 3770,
      "Ġcam": 3771,
      "Ġalthough": 3772,
      "ĠAfrican": 3773,
      "Ġprinciples": 3774,
      "Ġeasily": 3775,
      "Ġcontribute": 3776,
      "ady": 3777,
      "ĠHar": 3778,
      "Ġhappily": 3779,
      "ĠIndia": 3780,
      "ĠSchool": 3781,
      "Ġsituation": 3782,
      "Ġcomfort": 3783,
      "Ġtypically": 3784,
      "Ġbaby": 3785,
      "ocol": 3786,
      "ether": 3787,
      "Ġsweet": 3788,
      "From": 3789,
      "Ġfeet": 3790,
      "rs": 3791,
      "AC": 3792,
      "Ġimmedi": 3793,
      "Ġgoes": 3794,
      "Ġhole": 3795,
      "Ġec": 3796,
      "ĠSm": 3797,
      "Ġstar": 3798,
      "Ġplatform": 3799,
      "Ġangry": 3800,
      "Ġheavy": 3801,
      "Ġpan": 3802,
      "Ġfeature": 3803,
      "vention": 3804,
      "sec": 3805,
      "Ġlegal": 3806,
      "right": 3807,
      "Ġerror": 3808,
      "Ġaverage": 3809,
      "**:": 3810,
      "Ġspeed": 3811,
      "____": 3812,
      "ĠJan": 3813,
      "Ġpoor": 3814,
      "Ġdoctor": 3815,
      "othes": 3816,
      "itable": 3817,
      "nam": 3818,
      "Ġcars": 3819,
      "Ġeye": 3820,
      "ĠUnderstanding": 3821,
      "Ġder": 3822,
      "Ġidentity": 3823,
      "Ġmouth": 3824,
      "Ġcolon": 3825,
      "een": 3826,
      "Ġult": 3827,
      "Ġforces": 3828,
      "Ġdynam": 3829,
      "Ġgain": 3830,
      "Ġreceived": 3831,
      "overy": 3832,
      "Ġnegative": 3833,
      "Ġinsights": 3834,
      "Ġobjects": 3835,
      "Ġkn": 3836,
      "cean": 3837,
      "lim": 3838,
      "Ġsolution": 3839,
      "Ġproduced": 3840,
      "Ġprior": 3841,
      "Ġagreed": 3842,
      "Ġfigure": 3843,
      "ĠAg": 3844,
      "yp": 3845,
      "Ġson": 3846,
      "Ġrefers": 3847,
      "Ġteacher": 3848,
      "Ġformer": 3849,
      "Ġhol": 3850,
      "ĠAre": 3851,
      "omy": 3852,
      "Ġcomponents": 3853,
      "ello": 3854,
      "wise": 3855,
      "ulate": 3856,
      "Ġspl": 3857,
      "Ġstructures": 3858,
      "Ġcalcul": 3859,
      "Ġattack": 3860,
      "Ġmessage": 3861,
      "Ġlack": 3862,
      "aid": 3863,
      "iling": 3864,
      "Ġallowing": 3865,
      "Ġnarr": 3866,
      "Ġinterpret": 3867,
      "Ġdetails": 3868,
      "icks": 3869,
      "acc": 3870,
      "Ġbound": 3871,
      "Ġpow": 3872,
      "Ġvariety": 3873,
      "Ġprivate": 3874,
      "aul": 3875,
      "Ġhyd": 3876,
      "Ġlaws": 3877,
      "Ġate": 3878,
      "Ġlandsc": 3879,
      "Ġdescription": 3880,
      "Ġbalance": 3881,
      "Ġserious": 3882,
      "anish": 3883,
      "Ġtiny": 3884,
      "Ġdate": 3885,
      "ements": 3886,
      "Ġthus": 3887,
      "ĠResearch": 3888,
      "Ġcloud": 3889,
      "Ġsecret": 3890,
      "Ġdance": 3891,
      "ym": 3892,
      "arian": 3893,
      "Ġliterature": 3894,
      "Ġvill": 3895,
      "ĠFin": 3896,
      "uary": 3897,
      "itchen": 3898,
      "80": 3899,
      "Ġmax": 3900,
      "ession": 3901,
      "omp": 3902,
      "Ġwest": 3903,
      "Ġimag": 3904,
      "Ġdifferences": 3905,
      "ĠCount": 3906,
      "Ġpurpose": 3907,
      "uild": 3908,
      "Ġlocation": 3909,
      "ĠEngland": 3910,
      "Ġappropriate": 3911,
      "Ġ...": 3912,
      "Ġlimited": 3913,
      "Ġhid": 3914,
      "ĠToday": 3915,
      "Ġfloor": 3916,
      "Ġallowed": 3917,
      "ĠGreat": 3918,
      "ĠAdditionally": 3919,
      "Ġverb": 3920,
      "Ġletter": 3921,
      "Ġsmaller": 3922,
      "ystem": 3923,
      "ooth": 3924,
      "Ġden": 3925,
      "Ġsetting": 3926,
      "Ġshown": 3927,
      "ĠDis": 3928,
      "AP": 3929,
      "ĠDuring": 3930,
      "Ġload": 3931,
      "Ġvict": 3932,
      "Ġearlier": 3933,
      "Ġelectric": 3934,
      "ocal": 3935,
      "Ġpet": 3936,
      "ĠEl": 3937,
      "Ġimages": 3938,
      "Ġnumerous": 3939,
      "ĠMon": 3940,
      "cast": 3941,
      "Ġdeeper": 3942,
      "Ġstyle": 3943,
      "ãĤĴ": 3944,
      "Ġsoil": 3945,
      "Ġlanguages": 3946,
      "Ġgoal": 3947,
      "Ġgives": 3948,
      "Ġtalking": 3949,
      "Ġbutter": 3950,
      "anch": 3951,
      "Ġevalu": 3952,
      "ternal": 3953,
      "ondon": 3954,
      "ĠBar": 3955,
      "ãĤĭ": 3956,
      "ĠAlthough": 3957,
      "Ġsnow": 3958,
      "Ġwoman": 3959,
      "Ġdat": 3960,
      "inate": 3961,
      "Ġstring": 3962,
      "Ġcontains": 3963,
      "kes": 3964,
      "Ġmov": 3965,
      "Ġyellow": 3966,
      "Ġrule": 3967,
      "iency": 3968,
      "Ġthous": 3969,
      "Ġdetect": 3970,
      "Ġphr": 3971,
      "ecause": 3972,
      "ĠOther": 3973,
      "bl": 3974,
      "Ġorganizations": 3975,
      "ĠYes": 3976,
      "Look": 3977,
      "augh": 3978,
      "Ġdin": 3979,
      "Ġdamage": 3980,
      "Ġexpression": 3981,
      "ashing": 3982,
      "Ġox": 3983,
      "Ġmoved": 3984,
      "wide": 3985,
      "Ġexpand": 3986,
      "Ġscen": 3987,
      "igenous": 3988,
      "Ġalg": 3989,
      "life": 3990,
      "Ġrecommend": 3991,
      "change": 3992,
      "sect": 3993,
      "ned": 3994,
      "Ġhug": 3995,
      "Ġtrou": 3996,
      "Ġfruit": 3997,
      "Ġpond": 3998,
      "pec": 3999,
      "ĠSom": 4000,
      "ĠÂ": 4001,
      "ĠMod": 4002,
      "Ġfresh": 4003,
      "Ġblock": 4004,
      "asks": 4005,
      "60": 4006,
      "Ġsurprise": 4007,
      "Ġbeginning": 4008,
      "Ġsmile": 4009,
      "Ġmanufact": 4010,
      "irrel": 4011,
      "Ġpaint": 4012,
      "Ġnation": 4013,
      "ogle": 4014,
      "ĠAng": 4015,
      "rest": 4016,
      "With": 4017,
      "Ġactions": 4018,
      "Ġsaying": 4019,
      "Ġpul": 4020,
      "sp": 4021,
      "Ġtrain": 4022,
      "ĠEach": 4023,
      "Ġpredict": 4024,
      "hemat": 4025,
      "Ġuseful": 4026,
      "Ġpen": 4027,
      "Ġir": 4028,
      "Ġextreme": 4029,
      "Ġdive": 4030,
      "Ġdetail": 4031,
      "ĠRed": 4032,
      "ĠDon": 4033,
      "ingu": 4034,
      "ĠSally": 4035,
      "Ġpassed": 4036,
      "Ġsurrounding": 4037,
      "ĠGreek": 4038,
      "ech": 4039,
      "uk": 4040,
      "Ġcentral": 4041,
      "ĠChapter": 4042,
      "Ġmaybe": 4043,
      "ĠGl": 4044,
      "Ġconnected": 4045,
      "Ġkitchen": 4046,
      "Ġadminist": 4047,
      "Ġcauses": 4048,
      "Bob": 4049,
      "Ġcomprehe": 4050,
      "OR": 4051,
      "amples": 4052,
      "Ġswitch": 4053,
      "Ġyummy": 4054,
      "pen": 4055,
      "Ġsignificantly": 4056,
      "Ġfine": 4057,
      "Ġspot": 4058,
      "Ġded": 4059,
      "Ġchanged": 4060,
      "ĠAugust": 4061,
      "uman": 4062,
      "Ġchallenge": 4063,
      "Ġbackground": 4064,
      "Ġmodels": 4065,
      "Ġreported": 4066,
      "ĠAccording": 4067,
      "ĠIr": 4068,
      "Don": 4069,
      "Ġdiagn": 4070,
      "Ġconcepts": 4071,
      "uration": 4072,
      "Ġonto": 4073,
      "40": 4074,
      "Ġgraph": 4075,
      "She": 4076,
      "ĠDav": 4077,
      "Ġforg": 4078,
      "Ġexplain": 4079,
      "Ġprofessional": 4080,
      "print": 4081,
      "Ġtrade": 4082,
      "ĠIndian": 4083,
      "ĠJes": 4084,
      "Ġspecifically": 4085,
      "alt": 4086,
      "Ġweb": 4087,
      "Ġadventure": 4088,
      "men": 4089,
      "Ġcred": 4090,
      "Ġgold": 4091,
      "igr": 4092,
      "ĠFirst": 4093,
      "Ġprojects": 4094,
      "ĠUse": 4095,
      "IV": 4096,
      "Ġfold": 4097,
      "Ġdrive": 4098,
      "Ġconcent": 4099,
      "lec": 4100,
      "Ġstage": 4101,
      "Ġnoticed": 4102,
      "Ġacadem": 4103,
      "ĠOct": 4104,
      "Ġconstruct": 4105,
      "ners": 4106,
      "Ġbroken": 4107,
      "ĠPre": 4108,
      "Ġju": 4109,
      "Ġcenter": 4110,
      "==": 4111,
      "Ġâ": 4112,
      "Ġdead": 4113,
      "Ġesc": 4114,
      "Ġcitiz": 4115,
      "lin": 4116,
      "ĠOnce": 4117,
      "Ġslide": 4118,
      "Ġquant": 4119,
      "Ġmiddle": 4120,
      "iers": 4121,
      "Ġpictures": 4122,
      "Ġhappens": 4123,
      "osition": 4124,
      "Ġflower": 4125,
      "Ġamazing": 4126,
      "Ġ2012": 4127,
      "ĠAfrica": 4128,
      "Ġten": 4129,
      "Ġgone": 4130,
      "Ġrespond": 4131,
      "Ġ193": 4132,
      "orders": 4133,
      "Ġsave": 4134,
      "Ġfunctions": 4135,
      "Ġgiving": 4136,
      "pril": 4137,
      "rie": 4138,
      "Ġarr": 4139,
      "ĠTechn": 4140,
      "icious": 4141,
      "Ġbacter": 4142,
      "ander": 4143,
      "ipe": 4144,
      "Ġdetermine": 4145,
      "Ġrapid": 4146,
      "Ġsociet": 4147,
      "outhern": 4148,
      "ica": 4149,
      "Ġcore": 4150,
      "ĠEven": 4151,
      "place": 4152,
      "Ġmill": 4153,
      "Ġdistinct": 4154,
      "Ġsquirrel": 4155,
      "Ġconcerns": 4156,
      "Ġ2010": 4157,
      "Ġwebsite": 4158,
      "Ġcarefully": 4159,
      "Ġitems": 4160,
      "Ġcontroll": 4161,
      "Ġgets": 4162,
      "Ġmut": 4163,
      "Ġdescribed": 4164,
      "Ġfinding": 4165,
      "conf": 4166,
      "resp": 4167,
      "iliar": 4168,
      "Ġfinally": 4169,
      "64": 4170,
      "ĠLondon": 4171,
      "ĠSystem": 4172,
      "Ġmagn": 4173,
      "arah": 4174,
      "ultural": 4175,
      "Ġtruck": 4176,
      "year": 4177,
      "Âł": 4178,
      "Ġ40": 4179,
      "abet": 4180,
      "Ġmist": 4181,
      "see": 4182,
      "Ġround": 4183,
      "Ġriver": 4184,
      "Ġbott": 4185,
      "Ġnote": 4186,
      "Ġschol": 4187,
      "Ġhous": 4188,
      "IT": 4189,
      "Ġhit": 4190,
      "Ġmonth": 4191,
      "Ġwet": 4192,
      "Ġsou": 4193,
      "ctors": 4194,
      "Ġanx": 4195,
      "orthern": 4196,
      "Ġcateg": 4197,
      "Imagine": 4198,
      "Ġtired": 4199,
      "Ar": 4200,
      "Ġefficient": 4201,
      "Ġcourt": 4202,
      "ĠGr": 4203,
      "Ġsort": 4204,
      "ĠFurther": 4205,
      "ipp": 4206,
      "OM": 4207,
      "craft": 4208,
      "Ġveh": 4209,
      "Ġeffectively": 4210,
      "Ġrare": 4211,
      "Ġansw": 4212,
      "Ġseparate": 4213,
      "Ġexercise": 4214,
      "IC": 4215,
      "Ġgoals": 4216,
      "Ġsunny": 4217,
      "ĠWhich": 4218,
      "ĠInternational": 4219,
      "issions": 4220,
      "Ġmentioned": 4221,
      "Ġ24": 4222,
      "Ġnorth": 4223,
      "idents": 4224,
      "ĠJune": 4225,
      "Ġalternative": 4226,
      "ĠMarch": 4227,
      "Ġstatus": 4228,
      "log": 4229,
      "amb": 4230,
      "Ġiniti": 4231,
      "Ġfriendly": 4232,
      "Ġmorning": 4233,
      "amin": 4234,
      "Ġfunny": 4235,
      "ĠQ": 4236,
      "Ġdemand": 4237,
      "orge": 4238,
      "ĠInter": 4239,
      "Ġremove": 4240,
      "que": 4241,
      "Ġlength": 4242,
      "Ġ195": 4243,
      "fully": 4244,
      "Ġpolic": 4245,
      "Ġsmart": 4246,
      "Ġolder": 4247,
      "Ġmoving": 4248,
      "ĠPresident": 4249,
      "ipment": 4250,
      "Ġobs": 4251,
      "ky": 4252,
      "Ġdied": 4253,
      "Ġtour": 4254,
      "gypt": 4255,
      "Ġswim": 4256,
      "Ġclimb": 4257,
      "ĠArch": 4258,
      "Ġborn": 4259,
      "rain": 4260,
      "Ġprotein": 4261,
      "Ġpromote": 4262,
      "pass": 4263,
      "Ġreceive": 4264,
      "](": 4265,
      "undred": 4266,
      "Ġnucle": 4267,
      "ibly": 4268,
      "Ġstarting": 4269,
      "ĠTrans": 4270,
      "Ġlimit": 4271,
      "Ben": 4272,
      "Ġwasn": 4273,
      "Ġsolutions": 4274,
      "anging": 4275,
      "ĠCommun": 4276,
      "Ġadvant": 4277,
      "Ġnodded": 4278,
      "off": 4279,
      "Ġcapac": 4280,
      "Ġcarbon": 4281,
      "ias": 4282,
      "ĠMid": 4283,
      "Ġremo": 4284,
      "Ġarm": 4285,
      "ĠAp": 4286,
      "ushed": 4287,
      "ĠWilli": 4288,
      "Ġpoll": 4289,
      "ilit": 4290,
      "rupt": 4291,
      "Hi": 4292,
      "Ġlesson": 4293,
      "Ġgrab": 4294,
      "Ġadm": 4295,
      "Ġrabbit": 4296,
      "ula": 4297,
      "Ġwaste": 4298,
      "ãģĹ": 4299,
      "Ġbul": 4300,
      "Un": 4301,
      "Ġevol": 4302,
      "Ġrelevant": 4303,
      "Ġjoin": 4304,
      "Pro": 4305,
      "Ġtransm": 4306,
      "Ġweak": 4307,
      "ĠChurch": 4308,
      "edia": 4309,
      "Ġblocks": 4310,
      "Ġhtt": 4311,
      "Ġattract": 4312,
      "ĠSept": 4313,
      "ĠEast": 4314,
      "Ġinfect": 4315,
      "Hello": 4316,
      "Ġplays": 4317,
      "Ġfeelings": 4318,
      "However": 4319,
      "ĠDevelop": 4320,
      "Ġinvolve": 4321,
      "ĠPat": 4322,
      "Ġcreative": 4323,
      "Ġplanet": 4324,
      "Ġpush": 4325,
      "ĠFrance": 4326,
      "Ġrates": 4327,
      "Ġhighly": 4328,
      "Ġconclusion": 4329,
      "Ġdecisions": 4330,
      "Ġpattern": 4331,
      "iforn": 4332,
      "Ġeventually": 4333,
      "ĠKitty": 4334,
      "ED": 4335,
      "Ġinstr": 4336,
      "Ġapprox": 4337,
      "Ġtechnologies": 4338,
      "Ġconsequ": 4339,
      "Ġfoods": 4340,
      "Ġlayer": 4341,
      "bre": 4342,
      "indows": 4343,
      "ĠVal": 4344,
      "ari": 4345,
      "Ġcompletely": 4346,
      "(\"": 4347,
      "Ġfaster": 4348,
      "Ġintellig": 4349,
      "urg": 4350,
      "Ġ2011": 4351,
      "test": 4352,
      "ĠDNA": 4353,
      "Ġcream": 4354,
      "abilities": 4355,
      "ĠCenter": 4356,
      "gn": 4357,
      "Ġestim": 4358,
      "Ġexisting": 4359,
      "Ġproperty": 4360,
      "Ġcopy": 4361,
      "Ġcultures": 4362,
      "Ġmaster": 4363,
      "Ġconstruction": 4364,
      "ĠOur": 4365,
      "Ġrealized": 4366,
      "âĢ¢": 4367,
      "ees": 4368,
      "ĠEmp": 4369,
      "Ġlabor": 4370,
      "ĠFlu": 4371,
      "Ġ)": 4372,
      "Int": 4373,
      "orith": 4374,
      "aint": 4375,
      "hors": 4376,
      "Ġhabit": 4377,
      "Ġorganization": 4378,
      "Ġadvance": 4379,
      "ĠMark": 4380,
      "rael": 4381,
      "ager": 4382,
      "Ġrecently": 4383,
      "Cl": 4384,
      "istry": 4385,
      "Ġprotection": 4386,
      "exic": 4387,
      "Ġteachers": 4388,
      "Ġrepe": 4389,
      "EN": 4390,
      "Ġassum": 4391,
      "Ġmaxim": 4392,
      "ĠSara": 4393,
      "Ġphilosoph": 4394,
      "Ġokay": 4395,
      "Ġwants": 4396,
      "etc": 4397,
      "ĠMost": 4398,
      "Ġcoast": 4399,
      "Ġparam": 4400,
      "Ġoffice": 4401,
      "ĠApril": 4402,
      "ĠIns": 4403,
      "ĠEgypt": 4404,
      "Ġingred": 4405,
      "equ": 4406,
      "atur": 4407,
      "Ġweather": 4408,
      "usion": 4409,
      "Ġexpected": 4410,
      "ifornia": 4411,
      "can": 4412,
      "atch": 4413,
      "Ġproced": 4414,
      "Do": 4415,
      "Ġsexual": 4416,
      "Ġassign": 4417,
      "Ġincred": 4418,
      "going": 4419,
      "ĠCanada": 4420,
      "Ġglass": 4421,
      "Ġagric": 4422,
      "ĠDay": 4423,
      "antic": 4424,
      "Ġcup": 4425,
      "Ġmember": 4426,
      "Ġconstant": 4427,
      "son": 4428,
      "Ġsouth": 4429,
      "Ġsummer": 4430,
      "These": 4431,
      "ulated": 4432,
      "Ġdecre": 4433,
      "Ġguess": 4434,
      "Ġdespite": 4435,
      "Ġacqu": 4436,
      "![": 4437,
      "ĠJuly": 4438,
      "Ġguide": 4439,
      "dev": 4440,
      "text": 4441,
      "oly": 4442,
      "ĠScience": 4443,
      "itutions": 4444,
      "Ġteaching": 4445,
      "Ġeffort": 4446,
      "Ġmatch": 4447,
      "Ġcommer": 4448,
      "fficient": 4449,
      "Ġwatched": 4450,
      "ocr": 4451,
      "Ġengaging": 4452,
      "Ġsugar": 4453,
      "ava": 4454,
      "ãģ¦": 4455,
      "Ġartists": 4456,
      "Ġchoice": 4457,
      "Ġthoughts": 4458,
      "zing": 4459,
      "ĠTra": 4460,
      "versity": 4461,
      "Ġpolicies": 4462,
      "ffy": 4463,
      "EC": 4464,
      "iff": 4465,
      "Ġweeks": 4466,
      "osure": 4467,
      "Ġband": 4468,
      "Ġperhaps": 4469,
      "ĠArab": 4470,
      "Ġdistribution": 4471,
      "Ġ2013": 4472,
      "otic": 4473,
      "irection": 4474,
      "Ġmeasures": 4475,
      "Ġenter": 4476,
      "ĠEduc": 4477,
      "Ġcounter": 4478,
      "ĠUnion": 4479,
      "Ġdistance": 4480,
      "orrow": 4481,
      "Ġplayer": 4482,
      "Ġsolar": 4483,
      "Ġplanning": 4484,
      "Ġensuring": 4485,
      "Ġemotional": 4486,
      "icated": 4487,
      "ogether": 4488,
      "Ġsmooth": 4489,
      "Ġcities": 4490,
      "Sc": 4491,
      "Ġchanging": 4492,
      "athy": 4493,
      "hest": 4494,
      "Ġterrit": 4495,
      "Ġapply": 4496,
      "ero": 4497,
      "Ġturns": 4498,
      "atin": 4499,
      "Ġconcern": 4500,
      "Ġprofession": 4501,
      "ĠInstead": 4502,
      "Ġformed": 4503,
      "Ġbusinesses": 4504,
      "Ġsupply": 4505,
      "ounced": 4506,
      "Ġfields": 4507,
      "Ġhealthcare": 4508,
      "ĠMc": 4509,
      "Ġtoward": 4510,
      "Ġrise": 4511,
      "ĠPeople": 4512,
      "Ġhundred": 4513,
      "Ġign": 4514,
      "ending": 4515,
      "Ġpoly": 4516,
      "water": 4517,
      "Ġworkers": 4518,
      "ml": 4519,
      "Ġbecoming": 4520,
      "Ġgender": 4521,
      "Ġadults": 4522,
      "Ġacid": 4523,
      "isk": 4524,
      "ĠSer": 4525,
      "Ġunf": 4526,
      "col": 4527,
      "Ġtherefore": 4528,
      "ãģŁ": 4529,
      "vest": 4530,
      "Ġreasons": 4531,
      "Ġinstruct": 4532,
      "Ġtesting": 4533,
      "Ġsend": 4534,
      "cil": 4535,
      "Ġboard": 4536,
      "aled": 4537,
      "Ġ2008": 4538,
      "Ġcurrently": 4539,
      "urrent": 4540,
      "Ġmyster": 4541,
      "ĠCalifornia": 4542,
      "Ġbelieved": 4543,
      "elines": 4544,
      "Ġtiss": 4545,
      "Ġsites": 4546,
      "era": 4547,
      "Ġobt": 4548,
      "ĠGermany": 4549,
      "ospital": 4550,
      "Ġcosts": 4551,
      "ulture": 4552,
      "ache": 4553,
      "plications": 4554,
      "edom": 4555,
      "Ġrou": 4556,
      "199": 4557,
      "force": 4558,
      "ĠPort": 4559,
      "top": 4560,
      "add": 4561,
      "unk": 4562,
      "Ġdefault": 4563,
      "Ġbehavi": 4564,
      "ĠAmericans": 4565,
      "Ġhung": 4566,
      "Ġtraffic": 4567,
      "ĠMexic": 4568,
      "Ġbodies": 4569,
      "cember": 4570,
      "yal": 4571,
      "ented": 4572,
      "ifying": 4573,
      "Ġmolec": 4574,
      "Ġfully": 4575,
      "Ġnearly": 4576,
      "Ġwear": 4577,
      "Ġhom": 4578,
      "Ġreplace": 4579,
      "python": 4580,
      "Ġtasks": 4581,
      "cious": 4582,
      "Ġutil": 4583,
      "Ġregions": 4584,
      "rian": 4585,
      "Ġuns": 4586,
      "Ġworth": 4587,
      "Ġproperties": 4588,
      "urance": 4589,
      "met": 4590,
      "ĠIsrael": 4591,
      "ovember": 4592,
      "ipl": 4593,
      "Ġcollection": 4594,
      "Ġlibrary": 4595,
      "olf": 4596,
      "Ġadding": 4597,
      "illy": 4598,
      "ĠIS": 4599,
      "Ġphone": 4600,
      "ague": 4601,
      "Ġalgorith": 4602,
      "ightly": 4603,
      "Ġhill": 4604,
      "Ġequipment": 4605,
      "ube": 4606,
      "irty": 4607,
      "Ġsynt": 4608,
      "uit": 4609,
      "Ġvirus": 4610,
      "bert": 4611,
      "ĠSeptember": 4612,
      "asp": 4613,
      "Ġreb": 4614,
      "ĠWestern": 4615,
      "Ġtim": 4616,
      "rief": 4617,
      "ĠCong": 4618,
      "Ġmilk": 4619,
      "Ġadjust": 4620,
      "Ġdepending": 4621,
      "Ġphen": 4622,
      "Ġcommonly": 4623,
      "Ġeasier": 4624,
      "Ġreaders": 4625,
      "Ġforeign": 4626,
      "ĠTur": 4627,
      "txt": 4628,
      "Ġlessons": 4629,
      "Ġisland": 4630,
      "Ġremind": 4631,
      "ĠSince": 4632,
      "Ġvital": 4633,
      "Ġsevere": 4634,
      "Ġmathemat": 4635,
      "Ġpurch": 4636,
      "Ġoperations": 4637,
      "AM": 4638,
      "Sp": 4639,
      "Ġmeant": 4640,
      "ĠJanuary": 4641,
      "Ġinstalled": 4642,
      "iber": 4643,
      "ila": 4644,
      "iant": 4645,
      "ĠHistory": 4646,
      "Ġdangerous": 4647,
      "Ġprefer": 4648,
      "rogen": 4649,
      "Ġnative": 4650,
      "Ġusage": 4651,
      "Ġcraft": 4652,
      "))": 4653,
      "Ġrelease": 4654,
      "Ġappreciate": 4655,
      "Ġreleased": 4656,
      "omb": 4657,
      "orial": 4658,
      "Ġtherapy": 4659,
      "Ġspent": 4660,
      "ĠIts": 4661,
      "onic": 4662,
      "ĠAlso": 4663,
      "Ġbenefit": 4664,
      "Ġ21": 4665,
      "oses": 4666,
      "Ġqual": 4667,
      "Ġillustr": 4668,
      "cont": 4669,
      "Ġow": 4670,
      "Ġfaith": 4671,
      "iable": 4672,
      "ĠChe": 4673,
      "ĠConst": 4674,
      "Ġclin": 4675,
      "ĠRiver": 4676,
      "aughter": 4677,
      "Ġcitizens": 4678,
      "hab": 4679,
      "Ġequal": 4680,
      "ĠImagine": 4681,
      "ĠGovern": 4682,
      "za": 4683,
      "Ġbond": 4684,
      "mosp": 4685,
      "estic": 4686,
      "Ġdefined": 4687,
      "Ġoccup": 4688,
      "Ġchallenging": 4689,
      "Ġembra": 4690,
      "Ġhyp": 4691,
      "Ġmedicine": 4692,
      "Ġmap": 4693,
      "Ġyard": 4694,
      "host": 4695,
      "Ġdim": 4696,
      "ĠOctober": 4697,
      "Ġhar": 4698,
      "mod": 4699,
      "Ġleaders": 4700,
      "comes": 4701,
      "Ġstrength": 4702,
      "Ġelement": 4703,
      "ĠMaybe": 4704,
      "ype": 4705,
      "Ġgod": 4706,
      "Ġfederal": 4707,
      "icing": 4708,
      "enter": 4709,
      "ald": 4710,
      "unction": 4711,
      "Ġsituations": 4712,
      "Ġjournal": 4713,
      "Ġdiseases": 4714,
      "70": 4715,
      "icip": 4716,
      "asure": 4717,
      "ening": 4718,
      "ĠUnit": 4719,
      "TP": 4720,
      "ĠSarah": 4721,
      "Ġmaintaining": 4722,
      "ĠSee": 4723,
      "Ġmanage": 4724,
      "Ġcampa": 4725,
      "Ġapproaches": 4726,
      "Ġeconomy": 4727,
      "ool": 4728,
      "ĠPark": 4729,
      "Ġdisapp": 4730,
      "Ġresulting": 4731,
      "Ġevolution": 4732,
      "Ġauthors": 4733,
      "ĠJesus": 4734,
      "Ġreality": 4735,
      "Ġemotions": 4736,
      "Ġcomprehens": 4737,
      "Ġcontract": 4738,
      "Ġopportunity": 4739,
      "Ġtrib": 4740,
      "duces": 4741,
      "respond": 4742,
      "Ġtow": 4743,
      "Ġ2007": 4744,
      "Ġfuel": 4745,
      "Ġadvanced": 4746,
      "roup": 4747,
      "Ġclosed": 4748,
      "which": 4749,
      "ares": 4750,
      "roy": 4751,
      "Ġpresident": 4752,
      "Ġruns": 4753,
      "Ġrisks": 4754,
      "Ġintroduced": 4755,
      "Ġbunny": 4756,
      "ĠHigh": 4757,
      "Ġ2009": 4758,
      "uzz": 4759,
      "ĠInstitute": 4760,
      "ĠFluffy": 4761,
      "Ġhuge": 4762,
      "Ġwise": 4763,
      "ãĥ¼": 4764,
      "asion": 4765,
      "Ġreduced": 4766,
      "ĠHouse": 4767,
      "Ġmob": 4768,
      "Ġpackage": 4769,
      "Ġtraditions": 4770,
      "ĠFurthermore": 4771,
      "Ġtransfer": 4772,
      "Ġmission": 4773,
      "Ġap": 4774,
      "ĠDoes": 4775,
      "Ġindependent": 4776,
      "Ġrul": 4777,
      "ket": 4778,
      "US": 4779,
      "ĠSch": 4780,
      "Ġappears": 4781,
      "Ġleaving": 4782,
      "Ġcloth": 4783,
      "orage": 4784,
      "ĠMoreover": 4785,
      "Ġcausing": 4786,
      "ĠMary": 4787,
      "ician": 4788,
      "Ġtitle": 4789,
      "Ġasking": 4790,
      "Ġnetworks": 4791,
      "coh": 4792,
      "ey": 4793,
      "Ġengage": 4794,
      "ĠDecember": 4795,
      "Ġgather": 4796,
      "Ġbrown": 4797,
      "AL": 4798,
      "ashington": 4799,
      "Ġsem": 4800,
      "ĠDepartment": 4801,
      "Ġrat": 4802,
      "Ġhidden": 4803,
      "Ġwish": 4804,
      "umn": 4805,
      "Ġstudying": 4806,
      "west": 4807,
      "ĠNovember": 4808,
      "ĠAustralia": 4809,
      "ĠJames": 4810,
      "Ġactual": 4811,
      "ĠGeorge": 4812,
      "ĠRepublic": 4813,
      "Ġdeal": 4814,
      "ora": 4815,
      "Ġplaced": 4816,
      "raw": 4817,
      "CP": 4818,
      "Ġtopics": 4819,
      "Ġvary": 4820,
      "isl": 4821,
      "Ġvariable": 4822,
      "Ġreducing": 4823,
      "Ġeight": 4824,
      "Ġfemale": 4825,
      "hetic": 4826,
      "Ġserved": 4827,
      "Ġacademic": 4828,
      "arp": 4829,
      "ĊĠĠĠĠĊĠĠĠĠ": 4830,
      "Ġanti": 4831,
      "Ġgrew": 4832,
      "Sh": 4833,
      "leg": 4834,
      "Ġpromoting": 4835,
      "ji": 4836,
      "otes": 4837,
      "Ġ//": 4838,
      "uing": 4839,
      "ãģĻ": 4840,
      "ĠPal": 4841,
      "Ġincreasingly": 4842,
      "ading": 4843,
      "Ġpig": 4844,
      "ĠIslam": 4845,
      "ĠRemember": 4846,
      "volution": 4847,
      "Ġopin": 4848,
      "Ġmommy": 4849,
      "Ġchurch": 4850,
      "ĠPress": 4851,
      "29": 4852,
      "enty": 4853,
      "Ġchance": 4854,
      "Ġhelpful": 4855,
      "oles": 4856,
      "Ġprinc": 4857,
      "Ġmiles": 4858,
      "ĠCor": 4859,
      "Ġexperiment": 4860,
      "Ġrepresents": 4861,
      "Ġstrange": 4862,
      "Ġexhib": 4863,
      "ensity": 4864,
      "Ġeducational": 4865,
      "Ġinsect": 4866,
      "Ġsolid": 4867,
      "www": 4868,
      "olly": 4869,
      "Ġ23": 4870,
      "Ġaffected": 4871,
      "Ġspeech": 4872,
      "Ġdogs": 4873,
      "tical": 4874,
      "Ġformat": 4875,
      "ĠExpl": 4876,
      "formation": 4877,
      "Ġbeg": 4878,
      "Ġple": 4879,
      "Ġwis": 4880,
      "ĠBC": 4881,
      "ĠPython": 4882,
      "Ġsettings": 4883,
      "isy": 4884,
      "Ġkid": 4885,
      "Ġfaced": 4886,
      "ĠWas": 4887,
      "fl": 4888,
      "Ġpopulations": 4889,
      "alle": 4890,
      "Another": 4891,
      "ĠMat": 4892,
      "Ġgenerations": 4893,
      "Ġprepar": 4894,
      "Ġfing": 4895,
      "--------------------------------": 4896,
      "ĠPaul": 4897,
      "Ġbigger": 4898,
      "Ġknows": 4899,
      "eed": 4900,
      "Ġcontrast": 4901,
      "Ġmeeting": 4902,
      "Some": 4903,
      "Ġstandards": 4904,
      "Ġcompar": 4905,
      "ĠSpanish": 4906,
      "Ġtests": 4907,
      "Ġtruth": 4908,
      "ria": 4909,
      "Ġflex": 4910,
      "ros": 4911,
      "Ġtranslation": 4912,
      "ĠJewish": 4913,
      "iveness": 4914,
      "45": 4915,
      "ĠBlack": 4916,
      "zer": 4917,
      "ception": 4918,
      "ixt": 4919,
      "uting": 4920,
      "Ġsees": 4921,
      "Ġprompt": 4922,
      "ĠDa": 4923,
      "ĠThom": 4924,
      "Ġinterface": 4925,
      "encing": 4926,
      "Ġvirtual": 4927,
      "ĠLear": 4928,
      "Ġscale": 4929,
      "Ġcommercial": 4930,
      "Ġstars": 4931,
      "Ġsed": 4932,
      "27": 4933,
      "ĠFeb": 4934,
      "Ġ\"$": 4935,
      "Ġresistance": 4936,
      "vered": 4937,
      "ĠServ": 4938,
      "Ġapplied": 4939,
      "Ġtask": 4940,
      "ĠJane": 4941,
      "omic": 4942,
      "with": 4943,
      "ĠBra": 4944,
      "point": 4945,
      "semb": 4946,
      "Ġunivers": 4947,
      "Ġbuildings": 4948,
      "Ġbank": 4949,
      "Ġmetal": 4950,
      "Ġoutcomes": 4951,
      "Ġpresence": 4952,
      "ĠTimmy": 4953,
      "Ġnest": 4954,
      "house": 4955,
      "ogen": 4956,
      "],": 4957,
      "isco": 4958,
      "Ġquiet": 4959,
      "nic": 4960,
      "Ġplans": 4961,
      "Ġsignificance": 4962,
      "Ġflag": 4963,
      "atically": 4964,
      "ĠLaw": 4965,
      "Ġcorrespond": 4966,
      "Ġbot": 4967,
      "ups": 4968,
      "ĠAssoci": 4969,
      "Ġfinished": 4970,
      "Ġwinter": 4971,
      "Ġapart": 4972,
      "86": 4973,
      "Ġspaces": 4974,
      "Ġadvoc": 4975,
      "Ġarrived": 4976,
      "ĠSol": 4977,
      "Have": 4978,
      "Ġ{}": 4979,
      "Wow": 4980,
      "Ġgenetic": 4981,
      "Ġsustainable": 4982,
      "IP": 4983,
      "ĠMich": 4984,
      "Ġpurs": 4985,
      "ET": 4986,
      "ford": 4987,
      "Ġcenturies": 4988,
      "Ġdivid": 4989,
      "ev": 4990,
      "Ġsac": 4991,
      "ĠJour": 4992,
      "Ġbillion": 4993,
      "Ġurban": 4994,
      "Ġcreation": 4995,
      "Ġspiritual": 4996,
      "inter": 4997,
      "Ġbud": 4998,
      "odes": 4999,
      "100": 5000,
      "Ġreligion": 5001,
      "emb": 5002,
      "Ġpull": 5003,
      "Ġimmediately": 5004,
      "EL": 5005,
      "Ġletters": 5006,
      "ibilities": 5007,
      "Ġexperienced": 5008,
      "Ġsymbol": 5009,
      "Ġfrequently": 5010,
      "Ġatmosp": 5011,
      "Ġseemed": 5012,
      "Ġconv": 5013,
      "ffect": 5014,
      "Ġprimarily": 5015,
      "Ġawareness": 5016,
      "Ġshout": 5017,
      "ĠCoun": 5018,
      "ĠWashington": 5019,
      "ĠOb": 5020,
      "Ġreference": 5021,
      "Ġjustice": 5022,
      "Ġworldwide": 5023,
      "Ġtechnique": 5024,
      "untu": 5025,
      "ĠSocial": 5026,
      "tery": 5027,
      "Ġrequest": 5028,
      "Ġbeliefs": 5029,
      "ĠEmpire": 5030,
      "ĠSan": 5031,
      "Ġremote": 5032,
      "being": 5033,
      "Ġdirection": 5034,
      "Ġdelve": 5035,
      "Ġphrase": 5036,
      "Ġmovements": 5037,
      "ĠĊĠĠĠĠĊĠĠĠĠĊĠĠĠ": 5038,
      "Max": 5039,
      "ĠDad": 5040,
      "Ġenhance": 5041,
      "ĠDavid": 5042,
      "Ġingredients": 5043,
      "reet": 5044,
      "Ġshapes": 5045,
      "uce": 5046,
      "Ġhomes": 5047,
      "ĠId": 5048,
      "First": 5049,
      "ĠBo": 5050,
      "Ġunknown": 5051,
      "Ġradio": 5052,
      "Ġlady": 5053,
      "Ġcompl": 5054,
      "Ġmeat": 5055,
      "ĠSimilar": 5056,
      "Ġtopic": 5057,
      "Ġthousands": 5058,
      "Ġinterests": 5059,
      "Ġhero": 5060,
      "Ġvast": 5061,
      "Ġthemes": 5062,
      "Ġdescribe": 5063,
      "Ġapproximately": 5064,
      "elled": 5065,
      "ĠHave": 5066,
      "Ġhun": 5067,
      "Ġexplained": 5068,
      "AD": 5069,
      "26": 5070,
      "tes": 5071,
      "Ġsigns": 5072,
      "Ġfacilit": 5073,
      "Ġinternal": 5074,
      "Ġreturned": 5075,
      "ĠWilliam": 5076,
      "Ġclothes": 5077,
      "ĠAut": 5078,
      "28": 5079,
      "Ġelectr": 5080,
      "Ġbasis": 5081,
      "Ġenab": 5082,
      "Ġship": 5083,
      "ĠSu": 5084,
      "Ġdrawing": 5085,
      "Ġsports": 5086,
      "Ġsyn": 5087,
      "Ġperspectives": 5088,
      "Ġcomment": 5089,
      "acing": 5090,
      "Ġvit": 5091,
      "aved": 5092,
      "apped": 5093,
      "ĠGeneral": 5094,
      "Finally": 5095,
      "Ġresource": 5096,
      "Ġstone": 5097,
      "ĠDef": 5098,
      "ĠRel": 5099,
      "Ġ190": 5100,
      "Ġpolice": 5101,
      "Ġteeth": 5102,
      "ĠBudd": 5103,
      "igg": 5104,
      "Ġresil": 5105,
      "Ġherself": 5106,
      "Ġlin": 5107,
      "Ġinstitutions": 5108,
      "Ġsatis": 5109,
      "road": 5110,
      "Ġretur": 5111,
      "Ġrand": 5112,
      "Ġrecords": 5113,
      "Ġexpert": 5114,
      "Ġstuck": 5115,
      "Ġshel": 5116,
      "Ġhighlight": 5117,
      "Ġcro": 5118,
      "Ġbranch": 5119,
      "Ġtaste": 5120,
      "Ġwealth": 5121,
      "ĠAv": 5122,
      "Ġimproved": 5123,
      "king": 5124,
      "ĠJer": 5125,
      "Ġenvironments": 5126,
      "vironment": 5127,
      "Ġnearby": 5128,
      "Ġfostering": 5129,
      "box": 5130,
      "Ġenjoyed": 5131,
      "99": 5132,
      "Ġbacteria": 5133,
      "no": 5134,
      "amm": 5135,
      "ipped": 5136,
      "Ġdegree": 5137,
      "Ġsquare": 5138,
      "Ġreplied": 5139,
      "but": 5140,
      "Ġarray": 5141,
      "ãģª": 5142,
      "Ġ~": 5143,
      "Ġseeking": 5144,
      "ensions": 5145,
      "Ġlandscape": 5146,
      "Ġtun": 5147,
      "inst": 5148,
      "then": 5149,
      "ĠRet": 5150,
      "Ġ(\"": 5151,
      "eal": 5152,
      "alse": 5153,
      "Ġrot": 5154,
      "Ġvalid": 5155,
      "iate": 5156,
      "ĠChild": 5157,
      "Ġ80": 5158,
      "ructure": 5159,
      "Ġvegetables": 5160,
      "Ġcircum": 5161,
      "Ġslowly": 5162,
      "SD": 5163,
      "Ġenable": 5164,
      "ien": 5165,
      "Ġexposure": 5166,
      "Ġfocused": 5167,
      "ĠSuddenly": 5168,
      "ĠRo": 5169,
      "Ġexamine": 5170,
      "Ġhungry": 5171,
      "BC": 5172,
      "Ġmel": 5173,
      "Ġoccurs": 5174,
      "pd": 5175,
      "Ġpal": 5176,
      "ĠBook": 5177,
      "Ġ2015": 5178,
      "ruary": 5179,
      "Ġ2014": 5180,
      "Ġcapacity": 5181,
      "reate": 5182,
      "ernel": 5183,
      "Ġhide": 5184,
      "amental": 5185,
      "ogue": 5186,
      "Ġmonit": 5187,
      "Ġtrip": 5188,
      "iance": 5189,
      "itage": 5190,
      "Ġclosely": 5191,
      "Ġeggs": 5192,
      "Ġaren": 5193,
      "Ġlinks": 5194,
      "Ġfindings": 5195,
      "Ġtal": 5196,
      "stood": 5197,
      "Ġrandom": 5198,
      "bash": 5199,
      "Ġkeeping": 5200,
      "ĠBoth": 5201,
      "Ġshall": 5202,
      "ĠĠĊĊ": 5203,
      "Ġexcess": 5204,
      "Ġattrib": 5205,
      "ester": 5206,
      "lowing": 5207,
      "ographic": 5208,
      "hent": 5209,
      "apers": 5210,
      "('": 5211,
      "Ph": 5212,
      "Ġstatement": 5213,
      "usr": 5214,
      "Ġfollows": 5215,
      "Ġdiversity": 5216,
      "Ġincredible": 5217,
      "def": 5218,
      "Ġbottom": 5219,
      "rad": 5220,
      "Ġswing": 5221,
      "Ġwidely": 5222,
      "iverse": 5223,
      "Ġgar": 5224,
      "Ġcolorful": 5225,
      "ĠGreen": 5226,
      "gl": 5227,
      "Ġextract": 5228,
      "alian": 5229,
      "Ġappeared": 5230,
      "ords": 5231,
      "ĠAir": 5232,
      "Ġongoing": 5233,
      "Ġrough": 5234,
      "Ġcogn": 5235,
      "Ġprocessing": 5236,
      "Ġchann": 5237,
      "Ġpoet": 5238,
      "making": 5239,
      "Ġ60": 5240,
      "ĠEducation": 5241,
      "Ġphenomen": 5242,
      "Ġtaught": 5243,
      "ĠHen": 5244,
      "akers": 5245,
      "erate": 5246,
      "ĠMiddle": 5247,
      "Ġrequirements": 5248,
      "astern": 5249,
      "ĠInc": 5250,
      "Ġcooking": 5251,
      "Ġcovered": 5252,
      "Ġstorm": 5253,
      "90": 5254,
      "rif": 5255,
      "Ġ()": 5256,
      "Ġcarried": 5257,
      "Ġthr": 5258,
      "abetes": 5259,
      "ĠAsia": 5260,
      "arsh": 5261,
      "Ġinterested": 5262,
      "ĠCath": 5263,
      "Ġwhom": 5264,
      "iology": 5265,
      "Ġstream": 5266,
      "Ġthrow": 5267,
      "Ġshaping": 5268,
      "Ġcareer": 5269,
      "Ġsets": 5270,
      "Ġocean": 5271,
      "Ġremained": 5272,
      "Ġhighest": 5273,
      "Ġfigures": 5274,
      "Ġwife": 5275,
      "ĠSometimes": 5276,
      "iration": 5277,
      "list": 5278,
      "Ġearn": 5279,
      "olute": 5280,
      "ek": 5281,
      "Ġbash": 5282,
      "32": 5283,
      "ĠLa": 5284,
      "ĠAI": 5285,
      "Ġfamiliar": 5286,
      "ears": 5287,
      "Ġcommit": 5288,
      "Ġcried": 5289,
      "Ġourselves": 5290,
      "nel": 5291,
      "Ġpractical": 5292,
      "Ġtro": 5293,
      "Ġpun": 5294,
      "tion": 5295,
      "Ġmir": 5296,
      "Des": 5297,
      "ean": 5298,
      "Ġalt": 5299,
      "cohol": 5300,
      "Ġ2006": 5301,
      "Ġgun": 5302,
      "ĠOpen": 5303,
      "ĠCat": 5304,
      "Ġstaff": 5305,
      "bits": 5306,
      "Ġhur": 5307,
      "Ġsuggests": 5308,
      "Ġknowing": 5309,
      "ĠMake": 5310,
      "isp": 5311,
      "Ġtag": 5312,
      "Ġapple": 5313,
      "Ġchair": 5314,
      "ucky": 5315,
      "oviet": 5316,
      "ĊĠĠĠĠĊĊ": 5317,
      "Ġbroke": 5318,
      "Ġexternal": 5319,
      "ĠKore": 5320,
      "Ġnotice": 5321,
      "Ġfootball": 5322,
      "Ġcontinues": 5323,
      "Ġmotor": 5324,
      "Ġabsor": 5325,
      "Ġseven": 5326,
      "Ġspect": 5327,
      "kin": 5328,
      "rees": 5329,
      "ĠMor": 5330,
      "Ġvillage": 5331,
      "Ġdelicious": 5332,
      "Ġfixed": 5333,
      "appy": 5334,
      "Ġforget": 5335,
      "Ġcultiv": 5336,
      "Ġreferred": 5337,
      "Ġmale": 5338,
      "Ġglad": 5339,
      "rm": 5340,
      "Ġillness": 5341,
      "ĠTV": 5342,
      "Ġ2000": 5343,
      "Ġbread": 5344,
      "raction": 5345,
      "ĠMac": 5346,
      "mark": 5347,
      "Ġformal": 5348,
      "Â°": 5349,
      "agon": 5350,
      "anted": 5351,
      "ĠCounty": 5352,
      "ĠPri": 5353,
      "Ġleader": 5354,
      "Ġscholars": 5355,
      "Ġsister": 5356,
      "Ġwarn": 5357,
      "oma": 5358,
      "ĠBel": 5359,
      "Ġlistened": 5360,
      "Ġneighbor": 5361,
      "Ġcollege": 5362,
      "Ġsecure": 5363,
      "Ġholding": 5364,
      "]{}": 5365,
      "Ġfiction": 5366,
      "faces": 5367,
      "Ġrelatively": 5368,
      "hus": 5369,
      "gu": 5370,
      "Ġpossess": 5371,
      "lib": 5372,
      "Ġfeels": 5373,
      "Ġsitting": 5374,
      "UR": 5375,
      "Ġkilled": 5376,
      "ĠThus": 5377,
      "Ġrub": 5378,
      "Ġleads": 5379,
      "ĠInternet": 5380,
      "Ġwaiting": 5381,
      "ĠRussian": 5382,
      "Ġsched": 5383,
      "fered": 5384,
      "Ġdaughter": 5385,
      "eters": 5386,
      "Ġstreet": 5387,
      "Ġmotiv": 5388,
      "Ġroles": 5389,
      "rc": 5390,
      "Ġrestrict": 5391,
      "ding": 5392,
      "Ġboot": 5393,
      "Ġconsequences": 5394,
      "ĠĊĊ": 5395,
      "Ġinvolving": 5396,
      "Ġfreedom": 5397,
      "ĠSociety": 5398,
      "Ġhorse": 5399,
      "ingly": 5400,
      "yles": 5401,
      "Ġrecognize": 5402,
      "Ġmovie": 5403,
      "Ġterminal": 5404,
      "flow": 5405,
      "Ġanxiety": 5406,
      "ida": 5407,
      "Ġleaf": 5408,
      "Ġchick": 5409,
      "33": 5410,
      "Ġnotes": 5411,
      "Ġmajority": 5412,
      "Just": 5413,
      "Ġcomputers": 5414,
      "ortunately": 5415,
      "Ġstorage": 5416,
      "Ġcere": 5417,
      "osen": 5418,
      "ST": 5419,
      "Ġvision": 5420,
      "Sam": 5421,
      "what": 5422,
      "gal": 5423,
      "Ġlion": 5424,
      "ĠCO": 5425,
      "ourage": 5426,
      "Ġthick": 5427,
      "Ġinfection": 5428,
      "from": 5429,
      "Ġplayers": 5430,
      "Ġchoices": 5431,
      "berg": 5432,
      "Ġfundamental": 5433,
      "ĠOf": 5434,
      "och": 5435,
      "Ġ22": 5436,
      "Ġprofessionals": 5437,
      "iences": 5438,
      "Ġintric": 5439,
      "Ġgram": 5440,
      "EM": 5441,
      "Ġincome": 5442,
      "inations": 5443,
      "Ġemail": 5444,
      "Ġdiscussion": 5445,
      "Ġjoy": 5446,
      "Ġrocks": 5447,
      "ictionary": 5448,
      "ayer": 5449,
      "Ġpushed": 5450,
      "Ġtexts": 5451,
      "Ġmotion": 5452,
      "ĠBritain": 5453,
      "ĠFebruary": 5454,
      "Ġfruits": 5455,
      "Ġnarratives": 5456,
      "inent": 5457,
      "ĠHel": 5458,
      "Ġban": 5459,
      "hips": 5460,
      "Äģ": 5461,
      "Ġdoub": 5462,
      "Ġcapable": 5463,
      "Ġsolve": 5464,
      "All": 5465,
      "ĠDem": 5466,
      "body": 5467,
      "Ġsuggested": 5468,
      "Cont": 5469,
      "Ġax": 5470,
      "related": 5471,
      "ygen": 5472,
      "ĠSur": 5473,
      "Ġthank": 5474,
      "Ġexplan": 5475,
      "ĠFinally": 5476,
      "Ġstraight": 5477,
      "ĠConf": 5478,
      "ĠĠĠĠĠĠĠĠĠĠĠĠĠĠĠĠ": 5479,
      "Ġencoun": 5480,
      "Ġparties": 5481,
      "Ġheight": 5482,
      "Ġbutton": 5483,
      "Ġperspective": 5484,
      "ella": 5485,
      "ĠBecause": 5486,
      "Ġprice": 5487,
      "Ġspring": 5488,
      "Ġvacc": 5489,
      "aus": 5490,
      "never": 5491,
      "Ġoffered": 5492,
      "ĠRober": 5493,
      "Ġgenerate": 5494,
      "Conclusion": 5495,
      "Ġbone": 5496,
      "Ġamb": 5497,
      "riage": 5498,
      "Ġpreser": 5499,
      "Ġeverywhere": 5500,
      "rome": 5501,
      "Ġdefinition": 5502,
      "Ġkill": 5503,
      "Ġshowing": 5504,
      "Ġcontaining": 5505,
      "Ġempt": 5506,
      "Ġstrategy": 5507,
      "ĠSun": 5508,
      "Ġconver": 5509,
      "ĠGrand": 5510,
      "lor": 5511,
      "ãģĭ": 5512,
      "Ġtradition": 5513,
      "Ġantib": 5514,
      "Ġdestroy": 5515,
      "Ġgent": 5516,
      "Ġinternet": 5517,
      "ĠAD": 5518,
      "wood": 5519,
      "Ġtrouble": 5520,
      "ael": 5521,
      "Ġaddressing": 5522,
      "Ġbattle": 5523,
      "rot": 5524,
      "ĠHistor": 5525,
      "Ġcaught": 5526,
      "ĠOff": 5527,
      "Ġowner": 5528,
      "Ġfactor": 5529,
      "ĠLatin": 5530,
      "Ġaudience": 5531,
      "ĠThink": 5532,
      "Ġoffering": 5533,
      "rors": 5534,
      "Ġregional": 5535,
      "Ġsignal": 5536,
      "Ġclub": 5537,
      "SA": 5538,
      "Ġpresented": 5539,
      "ait": 5540,
      "igration": 5541,
      "Ġarms": 5542,
      "Ġexamining": 5543,
      "buntu": 5544,
      "Ġpron": 5545,
      "ago": 5546,
      "Ġrelax": 5547,
      "Ġfighting": 5548,
      "Ġmode": 5549,
      "Ġidentified": 5550,
      "Ġdetermined": 5551,
      "ishing": 5552,
      "Ġisol": 5553,
      "Ġcollaboration": 5554,
      "Ġtower": 5555,
      "win": 5556,
      "Ġstation": 5557,
      "Ġminor": 5558,
      "ĠSoviet": 5559,
      "iders": 5560,
      "Ġinnovative": 5561,
      "Ġsell": 5562,
      "Ġmessages": 5563,
      "Ġexperim": 5564,
      "iday": 5565,
      "Ġslightly": 5566,
      "nes": 5567,
      "while": 5568,
      "ĠEveryone": 5569,
      "Oh": 5570,
      "Ġgene": 5571,
      "Ġunderstood": 5572,
      "under": 5573,
      "Ġincorporating": 5574,
      "Ġstret": 5575,
      "bye": 5576,
      "Ġcombination": 5577,
      "Ġsick": 5578,
      "Ġencourage": 5579,
      "Ġmere": 5580,
      "Ġmagical": 5581,
      "Ġ2005": 5582,
      "ĠLife": 5583,
      "ĠIsland": 5584,
      "Ġclimbed": 5585,
      "ially": 5586,
      "ĠKeep": 5587,
      "Ġdinner": 5588,
      "ĠMal": 5589,
      "ĠLou": 5590,
      "ses": 5591,
      "Ġid": 5592,
      "Ġexciting": 5593,
      "Ġneighb": 5594,
      "Ġprepared": 5595,
      "Ġpros": 5596,
      "uilding": 5597,
      "Ġconvent": 5598,
      "Ġhandle": 5599,
      "Ġwave": 5600,
      "May": 5601,
      "umber": 5602,
      "Ġultimately": 5603,
      "Ġrouter": 5604,
      "78": 5605,
      "Ġvul": 5606,
      "Ġexcell": 5607,
      "ĠGoogle": 5608,
      "Ġsupported": 5609,
      "ĠÃ": 5610,
      "Ġclearly": 5611,
      "Ġliber": 5612,
      "Ġlic": 5613,
      "Ġmostly": 5614,
      "Ġpassword": 5615,
      "Ġrenew": 5616,
      "ĠStr": 5617,
      "Ġengineering": 5618,
      "vis": 5619,
      "ĠUsing": 5620,
      "Ġmail": 5621,
      "Ġflying": 5622,
      "Ġsalt": 5623,
      "enth": 5624,
      "Ġgeneration": 5625,
      "ĠAtl": 5626,
      "Ġconsumption": 5627,
      "Ġhttp": 5628,
      "ville": 5629,
      "ĠProgram": 5630,
      "Ġbeauty": 5631,
      "75": 5632,
      "Ġera": 5633,
      "Ġcharacteristics": 5634,
      "ado": 5635,
      "Ġtips": 5636,
      "Ġpages": 5637,
      "data": 5638,
      "Ġcoord": 5639,
      "Ġhospital": 5640,
      "35": 5641,
      "rich": 5642,
      "var": 5643,
      "Ġmoon": 5644,
      "itter": 5645,
      "Ġmuscle": 5646,
      "Ġtells": 5647,
      "Ġstarts": 5648,
      "opy": 5649,
      "Ġfert": 5650,
      "Ġ26": 5651,
      "Ġfur": 5652,
      "fly": 5653,
      "ĠCollege": 5654,
      "Ġsettle": 5655,
      "Please": 5656,
      "Ġanswers": 5657,
      "oom": 5658,
      "ĠTwo": 5659,
      "Ġpink": 5660,
      "Ġthin": 5661,
      "Ġwouldn": 5662,
      "Ġpreviously": 5663,
      "ĠMiss": 5664,
      "osystem": 5665,
      "Ġforgot": 5666,
      "ĠRich": 5667,
      "Ġefficiency": 5668,
      "ij": 5669,
      "do": 5670,
      "Ġscenar": 5671,
      "Americ": 5672,
      "Ġdatab": 5673,
      "embered": 5674,
      "Ġyield": 5675,
      "eline": 5676,
      "ĠCouncil": 5677,
      "mes": 5678,
      "Ġplatforms": 5679,
      "Ġstronger": 5680,
      "down": 5681,
      "ĠCr": 5682,
      "ĠSet": 5683,
      "ĠNet": 5684,
      "Ġtruly": 5685,
      "Of": 5686,
      "Ġadvice": 5687,
      "Ġlegisl": 5688,
      "sequently": 5689,
      "roduce": 5690,
      "Ġseeds": 5691,
      "ologists": 5692,
      "Ġproperly": 5693,
      "Alice": 5694,
      "char": 5695,
      "elly": 5696,
      "ellect": 5697,
      "anges": 5698,
      "ĠUN": 5699,
      "Ġcommands": 5700,
      "Ġpersist": 5701,
      "aching": 5702,
      "Ġexchange": 5703,
      "ĠMount": 5704,
      "Ġdecide": 5705,
      "Ġpulled": 5706,
      "Ġliqu": 5707,
      "Ġride": 5708,
      "levision": 5709,
      "icial": 5710,
      "rient": 5711,
      "Ġserves": 5712,
      "Ġsongs": 5713,
      "ĠWhite": 5714,
      "ãģ¨": 5715,
      "Anna": 5716,
      "ologist": 5717,
      "enses": 5718,
      "Ġ2016": 5719,
      "Ġobserved": 5720,
      "Ġsequence": 5721,
      "Ġmit": 5722,
      "Ġgained": 5723,
      "Ġoperation": 5724,
      "ocked": 5725,
      "Ġlabel": 5726,
      "iosity": 5727,
      "---": 5728,
      "Ġdedicated": 5729,
      "Ġflo": 5730,
      "Ġcritic": 5731,
      "pre": 5732,
      "Ã¡": 5733,
      "Ġfort": 5734,
      "ĠCongress": 5735,
      "According": 5736,
      "Ġoperating": 5737,
      "Ġwatching": 5738,
      "ya": 5739,
      "ĠImp": 5740,
      "See": 5741,
      "Ġintelligence": 5742,
      "Ġcheese": 5743,
      "field": 5744,
      "Ġ\"\"": 5745,
      "ĠAC": 5746,
      "Ġclasses": 5747,
      "Ġargument": 5748,
      "gment": 5749,
      "Ġahead": 5750,
      "edy": 5751,
      "Ġviolence": 5752,
      "ĠWindows": 5753,
      "Ġremembered": 5754,
      "ĠDel": 5755,
      "Ġspend": 5756,
      "Ġsumm": 5757,
      "Ġcombined": 5758,
      "istan": 5759,
      "Ġresponsibility": 5760,
      "Ġspeaking": 5761,
      "Ġlose": 5762,
      "Ġcharge": 5763,
      "Ġimpress": 5764,
      "Ġopening": 5765,
      "poses": 5766,
      "ston": 5767,
      "Ġimpl": 5768,
      "Ġdouble": 5769,
      "Ġarchitecture": 5770,
      "Ġtemperatures": 5771,
      "Ġmissing": 5772,
      "Ġdrugs": 5773,
      "utive": 5774,
      "Ġstim": 5775,
      "Ġ28": 5776,
      "ĠAnn": 5777,
      "Ġdu": 5778,
      "ĠPC": 5779,
      "ĠSimilarly": 5780,
      "Ġfrag": 5781,
      "Ġmixed": 5782,
      "yd": 5783,
      "Ġquar": 5784,
      "cend": 5785,
      "clusive": 5786,
      "ĠMet": 5787,
      "ansion": 5788,
      "Ġiron": 5789,
      "roid": 5790,
      "arg": 5791,
      "Ġpregn": 5792,
      "lete": 5793,
      "born": 5794,
      "Ġjoint": 5795,
      "Ġarmy": 5796,
      "Ġroots": 5797,
      "Ġvs": 5798,
      "Ġsample": 5799,
      "Ġweap": 5800,
      "ĠThomas": 5801,
      "ĠĊĠĠĠ": 5802,
      "Ġplastic": 5803,
      "Ġshop": 5804,
      "ĠJoh": 5805,
      "Ġlies": 5806,
      "Ġblank": 5807,
      "Ġresilience": 5808,
      "Ġcreativity": 5809,
      "path": 5810,
      "Ġtight": 5811,
      "ĠOS": 5812,
      "Ġbeach": 5813,
      "Ġrelative": 5814,
      "orough": 5815,
      "Ġdie": 5816,
      "ĠWater": 5817,
      "Ġdrag": 5818,
      "ĠAustralian": 5819,
      "Ġmountain": 5820,
      "ĠSte": 5821,
      "Ġcreates": 5822,
      "yr": 5823,
      "Ġorigin": 5824,
      "cript": 5825,
      "uate": 5826,
      "Sue": 5827,
      "Ġdistrict": 5828,
      "Ġinformed": 5829,
      "Ġmanaged": 5830,
      "Ġperformed": 5831,
      "attle": 5832,
      "ML": 5833,
      "Ġduck": 5834,
      "Ġindustrial": 5835,
      "Ġproposed": 5836,
      "bian": 5837,
      "Ġimproving": 5838,
      "ĠMart": 5839,
      "Ġscary": 5840,
      "ĠMedic": 5841,
      "Ġdisorders": 5842,
      "Ġbowl": 5843,
      "Ġaid": 5844,
      "oted": 5845,
      "ĠĊĠ": 5846,
      "aker": 5847,
      "Ġtox": 5848,
      "Ġaccurate": 5849,
      "ĠOld": 5850,
      "Ġdecades": 5851,
      "Ġbath": 5852,
      "ga": 5853,
      "rition": 5854,
      "icit": 5855,
      "ĠVol": 5856,
      "ĠAssociation": 5857,
      "ĠFranc": 5858,
      "Ġdriver": 5859,
      "Ġdirty": 5860,
      "Ġdiscrim": 5861,
      "ĠPen": 5862,
      "Ġspin": 5863,
      "ĠFound": 5864,
      "ĠHuman": 5865,
      "Ġwaves": 5866,
      "Ġcircumst": 5867,
      "Ġexistence": 5868,
      "Ġnavigate": 5869,
      "Ġastron": 5870,
      "Ġdeliver": 5871,
      "Ġengagement": 5872,
      "fra": 5873,
      "Ġnu": 5874,
      "Ġwoods": 5875,
      "Ġkernel": 5876,
      "Ġvolume": 5877,
      "ĠJournal": 5878,
      "ifies": 5879,
      "Before": 5880,
      "Ġrow": 5881,
      "Ġcolle": 5882,
      "Ġstanding": 5883,
      "Ġdiscovery": 5884,
      "Ġorganized": 5885,
      "Ġhour": 5886,
      "Ġassist": 5887,
      "Ġelev": 5888,
      "Ġliterary": 5889,
      "ĠDevelopment": 5890,
      "Ġcart": 5891,
      "Ġreports": 5892,
      "itness": 5893,
      "Ġappreciation": 5894,
      "ashion": 5895,
      "Ġcommunicate": 5896,
      "Ġlinked": 5897,
      "atever": 5898,
      "Ġplot": 5899,
      "Ġ%": 5900,
      "ĠSub": 5901,
      "Ġstayed": 5902,
      "ĠWork": 5903,
      "Ġremoved": 5904,
      "inant": 5905,
      "Ġclient": 5906,
      "Ġincreases": 5907,
      "ossible": 5908,
      "ĠDan": 5909,
      "herent": 5910,
      "Ġempty": 5911,
      "Ġoxygen": 5912,
      "ĠSupp": 5913,
      "well": 5914,
      "Ġunits": 5915,
      "ĠMuseum": 5916,
      "ĠProf": 5917,
      "apping": 5918,
      "SS": 5919,
      "Ġauthent": 5920,
      "Ġrhy": 5921,
      "Ġaimed": 5922,
      "band": 5923,
      "ĠMuslim": 5924,
      "Ġpotentially": 5925,
      "mas": 5926,
      "ĠFam": 5927,
      "Ġvulner": 5928,
      "Ġlikes": 5929,
      "Ġforced": 5930,
      "Ġcustomers": 5931,
      "ĠSal": 5932,
      "Ġbrief": 5933,
      "ĠCanadian": 5934,
      "ĠTest": 5935,
      "Ġbroader": 5936,
      "Ġstuff": 5937,
      "ĠOrgan": 5938,
      "ĠItalian": 5939,
      "idth": 5940,
      "Ġpromise": 5941,
      "grad": 5942,
      "Ġdefine": 5943,
      "Ġimpacts": 5944,
      "Ġconservation": 5945,
      "ĠAP": 5946,
      "Ġimmune": 5947,
      "Ġfounded": 5948,
      "Ġfirm": 5949,
      "Res": 5950,
      "Ġdiss": 5951,
      "ĠPhil": 5952,
      "De": 5953,
      "ĠEnvironment": 5954,
      "clude": 5955,
      "Ġwished": 5956,
      "Ġmer": 5957,
      "ulf": 5958,
      "bles": 5959,
      "ĠDi": 5960,
      "Ġelim": 5961,
      "Ġnuclear": 5962,
      "Ġ;": 5963,
      "Ġgentle": 5964,
      "alled": 5965,
      "Ġdownload": 5966,
      "hi": 5967,
      "Ġflat": 5968,
      "Ġparticipants": 5969,
      "ompl": 5970,
      "Ġseed": 5971,
      "Ġwalls": 5972,
      "ĠRussia": 5973,
      "Ġgrep": 5974,
      "Ġequival": 5975,
      "Ġmath": 5976,
      "Ġpurposes": 5977,
      "ĠLike": 5978,
      "Ġarrang": 5979,
      "Ġnor": 5980,
      "ĠUK": 5981,
      "')": 5982,
      "imal": 5983,
      "Ġrevolution": 5984,
      "Ġwondered": 5985,
      "ĠCharles": 5986,
      "Ġappoint": 5987,
      "Ġraised": 5988,
      "Ġtissue": 5989,
      "ĠCourse": 5990,
      "ĠBas": 5991,
      "Ġintended": 5992,
      "Ġmeal": 5993,
      "ffee": 5994,
      "Ġ`-": 5995,
      "34": 5996,
      "LE": 5997,
      "ront": 5998,
      "type": 5999,
      "Ġsupporting": 6000,
      "Ġancest": 6001,
      "gery": 6002,
      "Ġeast": 6003,
      "ĠCatholic": 6004,
      "III": 6005,
      "Ġguidelines": 6006,
      "Ġwonderful": 6007,
      "01": 6008,
      "Ġsentences": 6009,
      "App": 6010,
      "Ġtit": 6011,
      "Ġpair": 6012,
      "icians": 6013,
      "Ġdefe": 6014,
      "Ġauthority": 6015,
      "ĠCentral": 6016,
      "Ġchain": 6017,
      "Suddenly": 6018,
      "Ġinspired": 6019,
      "Ġparticles": 6020,
      "Ġfoster": 6021,
      "Ġswit": 6022,
      "rix": 6023,
      "osaur": 6024,
      "Ġbike": 6025,
      "Ġphilosophy": 6026,
      "Ġtap": 6027,
      "iot": 6028,
      "Ġelectricity": 6029,
      "ĠTime": 6030,
      "Ġmedium": 6031,
      "Ġves": 6032,
      "Ġsuppl": 6033,
      "Ġpuzz": 6034,
      "Ġdriving": 6035,
      "Ġmachines": 6036,
      "Ġmal": 6037,
      "Ġorange": 6038,
      "Ġlegs": 6039,
      "Ġotherwise": 6040,
      "Ġwire": 6041,
      "ĠPract": 6042,
      "Ġtea": 6043,
      "Ġjobs": 6044,
      "Ġnations": 6045,
      "ĠDespite": 6046,
      "Ġrail": 6047,
      "Ġgift": 6048,
      "Ġindigenous": 6049,
      "Ġcycle": 6050,
      "Ġconcentr": 6051,
      "Ġplane": 6052,
      "crib": 6053,
      "Ġalcohol": 6054,
      "Ġinteractions": 6055,
      "Ġmaximum": 6056,
      "Ġmuseum": 6057,
      "Ġsimpl": 6058,
      "ĠVir": 6059,
      "Ġsharp": 6060,
      "ĠBobo": 6061,
      "ena": 6062,
      "Ġnorthern": 6063,
      "Ġguidance": 6064,
      "Ġclassroom": 6065,
      "assion": 6066,
      "Ġdocuments": 6067,
      "rier": 6068,
      "Ġaccident": 6069,
      "ĠAnother": 6070,
      "Ġinnovation": 6071,
      "Pl": 6072,
      "ĠWeb": 6073,
      "ĠOut": 6074,
      "Ġaccompl": 6075,
      "itors": 6076,
      "Ġexploration": 6077,
      "Ġcreatures": 6078,
      "ĠDec": 6079,
      "/.": 6080,
      "ãģĮ": 6081,
      "Ġdish": 6082,
      "Ġcalls": 6083,
      "Ġabilities": 6084,
      "Ġ27": 6085,
      "inding": 6086,
      "Ġdropped": 6087,
      "55": 6088,
      "Ġsouthern": 6089,
      "ini": 6090,
      "ĠSl": 6091,
      "Ġadvantage": 6092,
      "Ġlake": 6093,
      "Ġgoodbye": 6094,
      "Ġboundaries": 6095,
      "utch": 6096,
      "Ġdiscussions": 6097,
      "En": 6098,
      "ĠâĢ¦": 6099,
      "Ġworried": 6100,
      "Ġdiabetes": 6101,
      "Ġjoined": 6102,
      "Ġannual": 6103,
      "Ġroute": 6104,
      "::": 6105,
      "OT": 6106,
      "Ġtechnical": 6107,
      "Ġdrop": 6108,
      "Ġfoundation": 6109,
      "ĠPublic": 6110,
      "rastructure": 6111,
      "Ġrein": 6112,
      "36": 6113,
      "unte": 6114,
      "anda": 6115,
      "Ġecosystem": 6116,
      "Ġneck": 6117,
      "Ġbridge": 6118,
      "Ġpolitics": 6119,
      "CH": 6120,
      "olit": 6121,
      "ĠBet": 6122,
      "Ġcomfortable": 6123,
      "how": 6124,
      "Ġconversation": 6125,
      "that": 6126,
      "Ġhousehold": 6127,
      "ĠParis": 6128,
      "ounce": 6129,
      "riers": 6130,
      "John": 6131,
      "Ġshif": 6132,
      "Ġlistening": 6133,
      "Ġideal": 6134,
      "Ġalongside": 6135,
      "Ġobserv": 6136,
      "Ġplate": 6137,
      "ĠPlan": 6138,
      "Ġlatter": 6139,
      "ĠMexico": 6140,
      "Ġresol": 6141,
      "Ġsuc": 6142,
      "Ġintellect": 6143,
      "Ġ2017": 6144,
      "Ġ2004": 6145,
      "Ġcompos": 6146,
      "Ġcompleted": 6147,
      "inet": 6148,
      "Ġmatters": 6149,
      "Ġpainting": 6150,
      "Ġcognitive": 6151,
      "Ġdepression": 6152,
      "Ġdisorder": 6153,
      "Ġ186": 6154,
      "Ġunus": 6155,
      "ĠJews": 6156,
      "oking": 6157,
      "Ġmarked": 6158,
      "NN": 6159,
      "Ġatmosphere": 6160,
      "ĠCam": 6161,
      "ĠBer": 6162,
      "Ġacknow": 6163,
      "Ġconsult": 6164,
      "Ġnewsp": 6165,
      "Ġ29": 6166,
      "Ġdesigns": 6167,
      "Ġdecor": 6168,
      "ĠTherefore": 6169,
      "ato": 6170,
      "Ġclick": 6171,
      "Ġexpensive": 6172,
      "Ġcampaign": 6173,
      "illa": 6174,
      "Ġobst": 6175,
      "ĠData": 6176,
      "Ġpoem": 6177,
      "ittee": 6178,
      "Ġhearing": 6179,
      "ĠDirect": 6180,
      "hered": 6181,
      "oken": 6182,
      "Ġperiods": 6183,
      "Ġcastle": 6184,
      "ĠWhe": 6185,
      "ificial": 6186,
      "Ġstruggle": 6187,
      "Ġkinds": 6188,
      "Ġrecon": 6189,
      "Ġcouple": 6190,
      "Go": 6191,
      "ĠConsider": 6192,
      "itis": 6193,
      "nee": 6194,
      "HE": 6195,
      "Her": 6196,
      "level": 6197,
      "ollo": 6198,
      "Ad": 6199,
      "Ġshoes": 6200,
      "ads": 6201,
      "ĠProt": 6202,
      "Ġedge": 6203,
      "Ġmyself": 6204,
      "ĠClass": 6205,
      "ĠSuch": 6206,
      "ĠPo": 6207,
      "phone": 6208,
      "Ġprogramming": 6209,
      "press": 6210,
      "writ": 6211,
      "Ġensures": 6212,
      "ĠCourt": 6213,
      "48": 6214,
      "Ġexists": 6215,
      "Ġvibr": 6216,
      "ĠRoy": 6217,
      "....": 6218,
      "hist": 6219,
      "ĠLord": 6220,
      "ocolate": 6221,
      "Ġuniverse": 6222,
      "Ġformation": 6223,
      "Ġlayers": 6224,
      "Ġbasket": 6225,
      "Ġcomponent": 6226,
      "Ġtalked": 6227,
      "Ġseeing": 6228,
      "Ġalign": 6229,
      "Ġarticles": 6230,
      "Ġprecise": 6231,
      "Ġestimated": 6232,
      "Ġmanip": 6233,
      "aser": 6234,
      "Ġexperts": 6235,
      "Ġreform": 6236,
      "Ġtrends": 6237,
      "Ġpowers": 6238,
      "ĠPers": 6239,
      "Ġtelevision": 6240,
      "eding": 6241,
      "Ġmanaging": 6242,
      "Ġindex": 6243,
      "Ġfailed": 6244,
      "Ġburn": 6245,
      "Ġrecip": 6246,
      "Ġrecognized": 6247,
      "Ġescape": 6248,
      "rum": 6249,
      "ĠFred": 6250,
      "Ġyouth": 6251,
      "cel": 6252,
      "Ġbreath": 6253,
      "Ġment": 6254,
      "ĠPlease": 6255,
      "Ġclaims": 6256,
      "ĠHenry": 6257,
      "Ġgirls": 6258,
      "ĠCivil": 6259,
      "ĠTogether": 6260,
      "Ġconfused": 6261,
      "oding": 6262,
      "Ġindicate": 6263,
      "Ġsubjects": 6264,
      "Ġnose": 6265,
      "ĠAny": 6266,
      "ĠArmy": 6267,
      "oper": 6268,
      "Ġextremely": 6269,
      "Ġgiant": 6270,
      "Ġimper": 6271,
      "Ġlaun": 6272,
      "Ġproteins": 6273,
      "Ġhouses": 6274,
      "Ġfant": 6275,
      "war": 6276,
      "UT": 6277,
      "Ġdesired": 6278,
      "RE": 6279,
      "Ġcorner": 6280,
      "Ġholds": 6281,
      "âĢĿ.": 6282,
      "Act": 6283,
      "Ġwriters": 6284,
      "using": 6285,
      "Tr": 6286,
      "xx": 6287,
      "ĠMil": 6288,
      "ĠMass": 6289,
      "Ġattend": 6290,
      "active": 6291,
      "Ġinstructions": 6292,
      "cked": 6293,
      "Ġchosen": 6294,
      "Ġappearance": 6295,
      ".'": 6296,
      "look": 6297,
      "Ġamounts": 6298,
      "Ġmonitoring": 6299,
      "uls": 6300,
      "Ġforever": 6301,
      "ĠRobert": 6302,
      "Ġloop": 6303,
      "Ġenthus": 6304,
      "Ġrecommended": 6305,
      "Ġdynamics": 6306,
      "More": 6307,
      "PS": 6308,
      "class": 6309,
      "Ġcircumstances": 6310,
      "hand": 6311,
      "ĠBur": 6312,
      "Ġcuriosity": 6313,
      "Ġsession": 6314,
      "View": 6315,
      "Ġnp": 6316,
      "Ġbrow": 6317,
      "Ġgoods": 6318,
      "Ġdegrees": 6319,
      "Ġgrown": 6320,
      "comm": 6321,
      "rey": 6322,
      "Ġagree": 6323,
      "Ġcookies": 6324,
      "Ġtreated": 6325,
      "da": 6326,
      "home": 6327,
      "Ġvictim": 6328,
      "Ġsides": 6329,
      "ycl": 6330,
      "ĠJoe": 6331,
      "Write": 6332,
      "ifications": 6333,
      "Ġregularly": 6334,
      "Ġsuddenly": 6335,
      "Ġic": 6336,
      "Ġupper": 6337,
      "asts": 6338,
      "Ġprison": 6339,
      "Ġpaid": 6340,
      "ĠMag": 6341,
      "rete": 6342,
      "Ġcapture": 6343,
      "Ġfailure": 6344,
      "Ġvessel": 6345,
      "adow": 6346,
      "Ġeld": 6347,
      "ĠVict": 6348,
      "Ġ1990": 6349,
      "Ġfill": 6350,
      "ĠCommon": 6351,
      "anguage": 6352,
      "Ġconsistent": 6353,
      "Ġdiscipl": 6354,
      "Ġvent": 6355,
      "GB": 6356,
      "pet": 6357,
      "Ġmine": 6358,
      "Ġgenes": 6359,
      "Ġcompetition": 6360,
      "ĠST": 6361,
      "iger": 6362,
      "Ġscene": 6363,
      "Ġhappening": 6364,
      "Ġsocietal": 6365,
      "ĠFore": 6366,
      "Ġrepresentation": 6367,
      "ĠPeter": 6368,
      "Ġmyth": 6369,
      "Ġoccurred": 6370,
      "Ġdisp": 6371,
      "Ġmainly": 6372,
      "Ġwisdom": 6373,
      "Ġconfiguration": 6374,
      "Ġcustomer": 6375,
      "04": 6376,
      "Ġsuitable": 6377,
      "ĠFood": 6378,
      "Ġconducted": 6379,
      "ĠJim": 6380,
      "Ġnotable": 6381,
      "Ġbehaviors": 6382,
      "Ġemployees": 6383,
      "Ġ2003": 6384,
      "Or": 6385,
      "ĠStep": 6386,
      "Ġempathy": 6387,
      "ĠSecond": 6388,
      "Ġath": 6389,
      "igure": 6390,
      "ĠSpace": 6391,
      "ola": 6392,
      "Ġenem": 6393,
      "Ġunderlying": 6394,
      "QL": 6395,
      "Ġbite": 6396,
      "ĠFre": 6397,
      "Ġinterview": 6398,
      "ocation": 6399,
      "Ġtransportation": 6400,
      "Ġmanufacture": 6401,
      "isis": 6402,
      "Ġshut": 6403,
      "Ġpassion": 6404,
      "Ġmud": 6405,
      "Ġfab": 6406,
      "Ġrapidly": 6407,
      "ĠFe": 6408,
      "Ġleadership": 6409,
      "arrow": 6410,
      "Ġgovernments": 6411,
      "stream": 6412,
      "sole": 6413,
      "uge": 6414,
      "Ġ189": 6415,
      "Ġbusy": 6416,
      "Ġfrequency": 6417,
      "Ġmur": 6418,
      "Ġnoted": 6419,
      "Ġteams": 6420,
      "ulating": 6421,
      "Ġmulti": 6422,
      "Ġstyles": 6423,
      "anes": 6424,
      "Ġdepends": 6425,
      "Ġbudget": 6426,
      "Sure": 6427,
      "ultane": 6428,
      "isation": 6429,
      "Ġring": 6430,
      "ĠMo": 6431,
      "Ġdepict": 6432,
      "Ġwaited": 6433,
      "ormal": 6434,
      "Ġreaction": 6435,
      "ĠAtt": 6436,
      "Ġartist": 6437,
      "ki": 6438,
      "Ġenables": 6439,
      "Ġviews": 6440,
      "eles": 6441,
      "ucks": 6442,
      "Ġrestaur": 6443,
      "Ġentry": 6444,
      "ĠNor": 6445,
      "Ġuniversity": 6446,
      "ĠSen": 6447,
      "ĠDisc": 6448,
      "Ġfacing": 6449,
      "Ġvariables": 6450,
      "Ġimplications": 6451,
      "Ġdistingu": 6452,
      "acific": 6453,
      "ĠFol": 6454,
      "Ġfeedback": 6455,
      "Ġsuccessfully": 6456,
      "Ġwelcome": 6457,
      "Ġcoffee": 6458,
      "anches": 6459,
      "Ġskill": 6460,
      "Ġentirely": 6461,
      "Ġcomprehensive": 6462,
      "American": 6463,
      "Ġobvious": 6464,
      "ĠMem": 6465,
      "ĠSmith": 6466,
      "itud": 6467,
      "38": 6468,
      "bal": 6469,
      "Ġsubstant": 6470,
      "Ġgently": 6471,
      "Ġdirector": 6472,
      "His": 6473,
      "During": 6474,
      "cription": 6475,
      "Ġdeeply": 6476,
      "ĠMad": 6477,
      "Ġprepare": 6478,
      "nership": 6479,
      "ends": 6480,
      "Ġaccepted": 6481,
      "dir": 6482,
      "Ġflour": 6483,
      "ta": 6484,
      "Ġblog": 6485,
      "Ġfacts": 6486,
      "Ġexcellent": 6487,
      "ĠAlice": 6488,
      "Ġreplaced": 6489,
      "van": 6490,
      "ighter": 6491,
      "Ġcandid": 6492,
      "ĠTex": 6493,
      "Ġremark": 6494,
      "Ġconscious": 6495,
      "Ġparalle": 6496,
      "ĠIntroduction": 6497,
      "Ġmeaningful": 6498,
      "Ġmanager": 6499,
      "Ġclinical": 6500,
      "fall": 6501,
      "Ã¼": 6502,
      "Ġbutterfly": 6503,
      "acles": 6504,
      "Ġacts": 6505,
      "Ġselection": 6506,
      "ĠFrank": 6507,
      "ypes": 6508,
      "()`": 6509,
      "Ġconsists": 6510,
      "'.": 6511,
      "free": 6512,
      "uous": 6513,
      "roph": 6514,
      "Ġflood": 6515,
      "Ġattacks": 6516,
      "Ġcredit": 6517,
      "ĠIdent": 6518,
      "friend": 6519,
      "Ġfif": 6520,
      "alysis": 6521,
      "Ġinfrastructure": 6522,
      "Mia": 6523,
      "CC": 6524,
      "Ġwhereas": 6525,
      "Ġemerged": 6526,
      "Ġcutting": 6527,
      "Ġderived": 6528,
      "Ġshouted": 6529,
      "Are": 6530,
      "ĠProv": 6531,
      "NS": 6532,
      "Ind": 6533,
      "Ġdram": 6534,
      "Ġparticle": 6535,
      "Ġlands": 6536,
      "Through": 6537,
      "dis": 6538,
      "Ġsales": 6539,
      "Ġnob": 6540,
      "ĠMont": 6541,
      "Ġbottle": 6542,
      "uct": 6543,
      "Ġfaces": 6544,
      "76": 6545,
      "iform": 6546,
      "oge": 6547,
      "ĠHol": 6548,
      "Ġmonitor": 6549,
      "Ġlunch": 6550,
      "roduct": 6551,
      "ĠKingdom": 6552,
      "Ġafford": 6553,
      "Ġremaining": 6554,
      "PA": 6555,
      "Ġcow": 6556,
      "orous": 6557,
      "Ġhoney": 6558,
      "Ġchronic": 6559,
      "Ġdesk": 6560,
      "Ġ90": 6561,
      "Ġmillions": 6562,
      "lig": 6563,
      "Ġessay": 6564,
      "ĠLouis": 6565,
      "ĠProject": 6566,
      "ĠTre": 6567,
      "ocratic": 6568,
      "Ġstrengthen": 6569,
      "ĠGovernment": 6570,
      "ĠUp": 6571,
      "Ġasks": 6572,
      "ints": 6573,
      "Ġsupports": 6574,
      "Ġvehicle": 6575,
      "Ġthanks": 6576,
      "mic": 6577,
      "Ġmarketing": 6578,
      "Ġmechanisms": 6579,
      "Ġbegins": 6580,
      "Ġheritage": 6581,
      "inf": 6582,
      "Ġbill": 6583,
      "Ġraise": 6584,
      "Ġlatest": 6585,
      "Ġfest": 6586,
      "Ġarts": 6587,
      "ĠâĨ": 6588,
      "Ġequivalent": 6589,
      "Ġcommunic": 6590,
      "tenance": 6591,
      "ĠAcadem": 6592,
      "Your": 6593,
      "Ġ]": 6594,
      "aws": 6595,
      "Ġemissions": 6596,
      "ita": 6597,
      "Ġthri": 6598,
      "\"?": 6599,
      "ali": 6600,
      "Ġtom": 6601,
      "Ġseat": 6602,
      "aturally": 6603,
      "Rem": 6604,
      "Ġimplementation": 6605,
      "Ġeveryday": 6606,
      "Ġpill": 6607,
      "Ġphase": 6608,
      "Ġstem": 6609,
      "Introduction": 6610,
      "Ġintricate": 6611,
      "Ġassistance": 6612,
      "ĠItaly": 6613,
      "Ġstored": 6614,
      "ĊĠĠĠĠĠĠĠĠĠĠĠĠĠĠĠ": 6615,
      "88": 6616,
      "ona": 6617,
      "Ġmuscles": 6618,
      "Ġpil": 6619,
      "rolog": 6620,
      "ĠIre": 6621,
      "Ġwhenever": 6622,
      "Ġrecorded": 6623,
      "Ġinsurance": 6624,
      "Ġsucceed": 6625,
      "Over": 6626,
      "Ġwings": 6627,
      "Ġradiation": 6628,
      "DP": 6629,
      "Ġinvent": 6630,
      "Ġfolder": 6631,
      "Ġgate": 6632,
      "Ġowl": 6633,
      "Ġdivided": 6634,
      "Ġnegot": 6635,
      "Ġorganic": 6636,
      "state": 6637,
      "apes": 6638,
      "obal": 6639,
      "ĠHappy": 6640,
      "Ġwindows": 6641,
      "Ġethical": 6642,
      "ĠPost": 6643,
      "venue": 6644,
      "Okay": 6645,
      "ste": 6646,
      "Ġbrand": 6647,
      "Ġpin": 6648,
      "Ġphotos": 6649,
      "rieved": 6650,
      "ÃŃ": 6651,
      "ĠDist": 6652,
      "ris": 6653,
      "Ġneuro": 6654,
      "Ġapparent": 6655,
      "ĠEnc": 6656,
      "ãģĨ": 6657,
      "Ġsoldiers": 6658,
      "aud": 6659,
      "aming": 6660,
      "Ġserving": 6661,
      "Ġflight": 6662,
      "Ġlargely": 6663,
      "Ġcab": 6664,
      "una": 6665,
      "ka": 6666,
      "Ġcamera": 6667,
      "Ġreturns": 6668,
      "Ġsmell": 6669,
      "Ġstood": 6670,
      "ĠSea": 6671,
      "Ġemerging": 6672,
      "Ġagreement": 6673,
      "Ġsupposed": 6674,
      "Ġconfident": 6675,
      "ishes": 6676,
      "Ġinfluenced": 6677,
      "plicated": 6678,
      "ĠAlexander": 6679,
      "Ġtrial": 6680,
      "ĠCompany": 6681,
      "Ġthrew": 6682,
      "ĠBlue": 6683,
      "Ġshoot": 6684,
      "Ġcoal": 6685,
      "</": 6686,
      "empl": 6687,
      "ums": 6688,
      "ĠPower": 6689,
      "Ġbelief": 6690,
      "Ġoriginally": 6691,
      "Ġvan": 6692,
      "Ġfinish": 6693,
      "500": 6694,
      "ĠNAS": 6695,
      "ii": 6696,
      "aks": 6697,
      "oons": 6698,
      "Ġcorpor": 6699,
      "Ġgrabbed": 6700,
      "Ġ2001": 6701,
      "ĠAmong": 6702,
      "Many": 6703,
      "Ġcert": 6704,
      "Ġanalyze": 6705,
      "].": 6706,
      "Ġemployed": 6707,
      "ĠDet": 6708,
      "Ġended": 6709,
      "Ġpromised": 6710,
      "tering": 6711,
      "39": 6712,
      "Ġsurvey": 6713,
      "Ġcards": 6714,
      "Ġexpansion": 6715,
      "ipping": 6716,
      "Our": 6717,
      "Ġcollective": 6718,
      "Ġabsolute": 6719,
      "lers": 6720,
      "eless": 6721,
      "ĠApollo": 6722,
      "Ġdynamic": 6723,
      "html": 6724,
      "Ġjuice": 6725,
      "urb": 6726,
      "ĠMicro": 6727,
      "Ġadministr": 6728,
      "Ġpump": 6729,
      "ĠLook": 6730,
      "ensus": 6731,
      "Ġunusual": 6732,
      "Ġfarmers": 6733,
      "Ġcontrolled": 6734,
      "Ġwaters": 6735,
      "ĠBro": 6736,
      "Ġaccomp": 6737,
      "Ġfashion": 6738,
      "ĠStand": 6739,
      "Ġcrim": 6740,
      "bra": 6741,
      "ĠElect": 6742,
      "Ġrecognition": 6743,
      "Ġinhab": 6744,
      "asy": 6745,
      "Ġmanner": 6746,
      "Ġmarried": 6747,
      "Ġreliable": 6748,
      "Ġinvestment": 6749,
      "Ġfellow": 6750,
      "ĠManagement": 6751,
      "Ġdialogue": 6752,
      "ĠDesign": 6753,
      "Ġadopted": 6754,
      "ĠAS": 6755,
      "++": 6756,
      "Ġrom": 6757,
      "Ġdiam": 6758,
      "ĠRevolution": 6759,
      "Chapter": 6760,
      "anta": 6761,
      "emic": 6762,
      "ĠGood": 6763,
      "greg": 6764,
      "ĠBrown": 6765,
      "Ġcompassion": 6766,
      "Ġunlike": 6767,
      "cut": 6768,
      "Ġske": 6769,
      "unning": 6770,
      "Ġselected": 6771,
      "ĠWill": 6772,
      "Ġstands": 6773,
      "ĠFlor": 6774,
      "Ġmos": 6775,
      "Ġclients": 6776,
      "Ġbreast": 6777,
      "ï¼": 6778,
      "root": 6779,
      "cluding": 6780,
      "Ġinner": 6781,
      "Ġresidents": 6782,
      "fulness": 6783,
      "ibrary": 6784,
      "ĠConnect": 6785,
      "Ġindependence": 6786,
      "Ġshift": 6787,
      "Ġpupp": 6788,
      "Ġmac": 6789,
      "Ġnerv": 6790,
      "ĠRob": 6791,
      "44": 6792,
      "Ġfox": 6793,
      "Ġdetailed": 6794,
      "ĠGra": 6795,
      "Ġversions": 6796,
      "77": 6797,
      "Ġtooth": 6798,
      "itutional": 6799,
      "ĠJud": 6800,
      "Ġindeed": 6801,
      "la": 6802,
      "such": 6803,
      "Ġwestern": 6804,
      "umin": 6805,
      "Ġrig": 6806,
      "Ġsufficient": 6807,
      "ĠIII": 6808,
      "Ġcoat": 6809,
      "Ġliquid": 6810,
      "ran": 6811,
      "Ġstable": 6812,
      "Ġartistic": 6813,
      "ĠTreat": 6814,
      "lock": 6815,
      "opt": 6816,
      "Ġyog": 6817,
      "Ġthorough": 6818,
      "Ġboys": 6819,
      "Ġchicken": 6820,
      "ãĥ³": 6821,
      "throp": 6822,
      "Ġcorrectly": 6823,
      "Ġreject": 6824,
      "Ġdoctors": 6825,
      "Ġamid": 6826,
      "Ġextended": 6827,
      "Ġblew": 6828,
      "ĠEr": 6829,
      "Ġtypical": 6830,
      "Ġtechnological": 6831,
      "Ġnone": 6832,
      "Ġtele": 6833,
      "Ġsocieties": 6834,
      "Ġrice": 6835,
      "Ġperce": 6836,
      "Ġinjury": 6837,
      "pes": 6838,
      "world": 6839,
      "ancer": 6840,
      "ĠTitle": 6841,
      "Ġentertain": 6842,
      "Ġresponses": 6843,
      "Ġconsidering": 6844,
      "Ġdishes": 6845,
      "agram": 6846,
      "LL": 6847,
      "Ġdisk": 6848,
      "`:": 6849,
      "ĠStudents": 6850,
      "Ġ@": 6851,
      "peror": 6852,
      "Ġcalm": 6853,
      "ĠBay": 6854,
      "Ġsubs": 6855,
      "Ġinitially": 6856,
      "Ġstated": 6857,
      "ĠSoon": 6858,
      "Ġexercises": 6859,
      "Add": 6860,
      "Ġcrow": 6861,
      "Ġopinion": 6862,
      "ĠTexas": 6863,
      "bar": 6864,
      "Ġbell": 6865,
      "Ġneut": 6866,
      "Ġbranches": 6867,
      "Ġ2002": 6868,
      "ĠMichael": 6869,
      "ĠVirgin": 6870,
      "sm": 6871,
      "etime": 6872,
      "ĠSpain": 6873,
      "Ġthinks": 6874,
      "Ġclapped": 6875,
      "Ġcircle": 6876,
      "Ġmad": 6877,
      "long": 6878,
      "Ġvehicles": 6879,
      "ĠVis": 6880,
      "AA": 6881,
      "uke": 6882,
      "Ġsen": 6883,
      "Ġtut": 6884,
      "ĠCle": 6885,
      "Ġintellectual": 6886,
      "Ġtreatments": 6887,
      "Ġaffects": 6888,
      "ĠWelcome": 6889,
      "Ġimpossible": 6890,
      "Ġaircraft": 6891,
      "ĠKh": 6892,
      "ĠPortug": 6893,
      "ĠJose": 6894,
      "Ġmarriage": 6895,
      "date": 6896,
      "uis": 6897,
      "Ġrealm": 6898,
      "rients": 6899,
      "ĠRom": 6900,
      "liament": 6901,
      "Ġwriter": 6902,
      "Ġlocations": 6903,
      "Ġaccounts": 6904,
      "ĠIreland": 6905,
      "89": 6906,
      "Ġsole": 6907,
      "anji": 6908,
      "Ġtwist": 6909,
      "Ġbrings": 6910,
      "Ġwondering": 6911,
      "Ġofficials": 6912,
      "Ġdrinking": 6913,
      "Ġassessment": 6914,
      "uan": 6915,
      "Ġconversations": 6916,
      "Ġdiscussed": 6917,
      "ND": 6918,
      "Ġfalse": 6919,
      "Ġbiological": 6920,
      "Ġdatabase": 6921,
      "Ġsensitive": 6922,
      "cat": 6923,
      "Ġsail": 6924,
      "Ġmonster": 6925,
      "31": 6926,
      "Ġthread": 6927,
      "Ġexplanation": 6928,
      "Ġsought": 6929,
      "Ġinteraction": 6930,
      "\":": 6931,
      "ĠMommy": 6932,
      "ĠCarol": 6933,
      "ĠScott": 6934,
      "Ġsimultane": 6935,
      "Ġ1980": 6936,
      "itely": 6937,
      "ĠApple": 6938,
      "essions": 6939,
      "ĠCD": 6940,
      "Ġstrict": 6941,
      "Ġerrors": 6942,
      "Ġ1970": 6943,
      "Ġshot": 6944,
      "Ġagriculture": 6945,
      "IM": 6946,
      "Ġadventures": 6947,
      "Ġsplit": 6948,
      "Ġwitness": 6949,
      "ĠSpec": 6950,
      "Ġsoup": 6951,
      "Ġprocedures": 6952,
      "Se": 6953,
      "Ġfav": 6954,
      "Ġperman": 6955,
      "Ġinflam": 6956,
      "Ġsudo": 6957,
      "Gen": 6958,
      "Ġprices": 6959,
      "Ġ70": 6960,
      "ĠDutch": 6961,
      "Ġclar": 6962,
      "Ġmoments": 6963,
      "Ġupdate": 6964,
      "itual": 6965,
      "ĠParty": 6966,
      "Ġterritory": 6967,
      "ĠUbuntu": 6968,
      "New": 6969,
      "Ġconstit": 6970,
      "Ġpp": 6971,
      "resent": 6972,
      "ãģ¯": 6973,
      "ĠVictor": 6974,
      "racy": 6975,
      "Ġoverw": 6976,
      "Ġregulations": 6977,
      "37": 6978,
      "Ġsinging": 6979,
      "ĠTechnology": 6980,
      "ĠĠĠĠĠ": 6981,
      "Ġarguments": 6982,
      "Ġcertainly": 6983,
      "orter": 6984,
      "aked": 6985,
      "ocket": 6986,
      "Ġsubm": 6987,
      "Ġpointed": 6988,
      "ĠPacific": 6989,
      "config": 6990,
      "Ġdiscrimination": 6991,
      "ĠEastern": 6992,
      "ĠCho": 6993,
      "Ġhus": 6994,
      "Ġpossibly": 6995,
      "Ġprotected": 6996,
      "Ġchocolate": 6997,
      "Ġethnic": 6998,
      "Ġwaved": 6999,
      "Sara": 7000,
      "Note": 7001,
      "Ġssh": 7002,
      "Ġstudied": 7003,
      "ION": 7004,
      "uits": 7005,
      "inity": 7006,
      "Ġwhatever": 7007,
      "Ġsector": 7008,
      "Ġpurple": 7009,
      "fast": 7010,
      "Ġpure": 7011,
      "othe": 7012,
      "TER": 7013,
      "ĠGold": 7014,
      "Ġlisted": 7015,
      "ĠUs": 7016,
      "umes": 7017,
      "Ġspark": 7018,
      "ĠOh": 7019,
      "Ġsurgery": 7020,
      "Ġaddresses": 7021,
      "ugg": 7022,
      "Ġcomplexity": 7023,
      "Ġrely": 7024,
      "Ġunless": 7025,
      "Ġfacilities": 7026,
      "oral": 7027,
      "ĠSS": 7028,
      "Ġdomain": 7029,
      "Ġbee": 7030,
      "Ġparticipate": 7031,
      "fortunately": 7032,
      "Ġalike": 7033,
      "Ġscar": 7034,
      "Ġpollution": 7035,
      "ĠModern": 7036,
      "ĠLand": 7037,
      "ĠRome": 7038,
      "Ġportion": 7039,
      "Ġbuck": 7040,
      "Ġexpressions": 7041,
      "Ġrecovery": 7042,
      "ĠService": 7043,
      "Ġtherm": 7044,
      "reens": 7045,
      "ĠList": 7046,
      "Ġflavor": 7047,
      "ĠPhys": 7048,
      "Ġmusical": 7049,
      "Ġannounced": 7050,
      "Ġswam": 7051,
      "ĠBefore": 7052,
      "Ġhoriz": 7053,
      "lines": 7054,
      "Ġwearing": 7055,
      "Ġelectrical": 7056,
      "Ġrepresented": 7057,
      "Ġdescribes": 7058,
      "rem": 7059,
      "verty": 7060,
      "Ġsaved": 7061,
      "Ġsignals": 7062,
      "Where": 7063,
      "Ġkil": 7064,
      "Ġsport": 7065,
      "Ġtherap": 7066,
      "Ġforth": 7067,
      "Ġcollected": 7068,
      "fish": 7069,
      "Ġcul": 7070,
      "LAN": 7071,
      "Ġtick": 7072,
      "celer": 7073,
      "Ġpoverty": 7074,
      "Ġturning": 7075,
      "0000": 7076,
      "connect": 7077,
      "Ġtroops": 7078,
      "Ġru": 7079,
      "rovers": 7080,
      "Ġconfidence": 7081,
      "Ġinitiatives": 7082,
      "gent": 7083,
      "oting": 7084,
      "ĠEv": 7085,
      "Ġhundreds": 7086,
      "Ã¶": 7087,
      "ĠNative": 7088,
      "Ġcryst": 7089,
      "Ġordinary": 7090,
      "Ġapples": 7091,
      "Ġenabling": 7092,
      "Ab": 7093,
      "Ġlung": 7094,
      "Ġ``": 7095,
      "sembly": 7096,
      "Ġpip": 7097,
      "Ġmassive": 7098,
      "Ġrepeated": 7099,
      "Ġindustries": 7100,
      "Le": 7101,
      "Ġtheore": 7102,
      "Ġcos": 7103,
      "Ġgreatest": 7104,
      "Ġsight": 7105,
      "Ġends": 7106,
      "CO": 7107,
      "Ġtum": 7108,
      "Ġprofound": 7109,
      "56": 7110,
      "Ġinsight": 7111,
      "Rec": 7112,
      "Ġnormally": 7113,
      "azine": 7114,
      "FS": 7115,
      "Ġexpectations": 7116,
      "Ġsymbols": 7117,
      "uation": 7118,
      "ĠHam": 7119,
      "ibl": 7120,
      "Ġattached": 7121,
      "ograp": 7122,
      "Ġpool": 7123,
      "Although": 7124,
      "ĠWik": 7125,
      "Ġvac": 7126,
      "ĠJohns": 7127,
      "ds": 7128,
      "Ġmigr": 7129,
      "ĠHall": 7130,
      "zed": 7131,
      "ĠBre": 7132,
      "Ġgenerated": 7133,
      "Ġsho": 7134,
      "Ġpreferences": 7135,
      "Under": 7136,
      "Ġoptimal": 7137,
      "Ġbought": 7138,
      "Ġeleph": 7139,
      "bow": 7140,
      "Ġhonest": 7141,
      "Ġorganisms": 7142,
      "local": 7143,
      "ami": 7144,
      "Ġavo": 7145,
      "Ġresolution": 7146,
      "Ġmobile": 7147,
      "Ġtwice": 7148,
      "ashed": 7149,
      "Ġstro": 7150,
      "Ġentered": 7151,
      "ĠRoyal": 7152,
      "Ġhealing": 7153,
      "Ġvolunte": 7154,
      "pack": 7155,
      "Example": 7156,
      "Ġintervention": 7157,
      "avy": 7158,
      "Ġheavily": 7159,
      "Ġfluid": 7160,
      "ĠDaisy": 7161,
      "Ġneighborhood": 7162,
      "yer": 7163,
      "pan": 7164,
      "arant": 7165,
      "des": 7166,
      "Ġrose": 7167,
      "ĠKey": 7168,
      "Ġasp": 7169,
      "Ġextent": 7170,
      "DE": 7171,
      "ĠQueen": 7172,
      "ĠFlorida": 7173,
      "Ġharmful": 7174,
      "gi": 7175,
      "ulpt": 7176,
      "Ġrobot": 7177,
      "spe": 7178,
      "azz": 7179,
      "Ġmort": 7180,
      "Ġdepth": 7181,
      "Ġstock": 7182,
      "Ġargue": 7183,
      "Ã³": 7184,
      "ĠIndigenous": 7185,
      "Ġfunctional": 7186,
      "Ġauthorities": 7187,
      "Ġmarine": 7188,
      "aph": 7189,
      "Ġagricultural": 7190,
      "MS": 7191,
      "ĠReal": 7192,
      "Ġdomestic": 7193,
      "Ġroutine": 7194,
      "anger": 7195,
      "ĠBi": 7196,
      "Ġelectronic": 7197,
      "Ġcolumn": 7198,
      "Ġtoxic": 7199,
      "burg": 7200,
      "Ġdictionary": 7201,
      "Ġnaturally": 7202,
      "Ġsurvival": 7203,
      "rat": 7204,
      "Ġinherent": 7205,
      "century": 7206,
      "Ġinstruments": 7207,
      "Ġtrick": 7208,
      "Ġassume": 7209,
      "Ġvisible": 7210,
      "arly": 7211,
      "ĠNASA": 7212,
      "Ġmeals": 7213,
      "ersonal": 7214,
      "Ġproducing": 7215,
      "ĠThank": 7216,
      "Ġsecondary": 7217,
      "Ġmaintenance": 7218,
      "Ġcelebrate": 7219,
      "Since": 7220,
      "Ġspeaker": 7221,
      "Ġchemicals": 7222,
      "ĠInside": 7223,
      "Ġtheme": 7224,
      "uma": 7225,
      "ourse": 7226,
      "ĠIrish": 7227,
      "Ġemergency": 7228,
      "Ġreduction": 7229,
      "Ġhyper": 7230,
      "ulum": 7231,
      "Ġartificial": 7232,
      "Ġconventional": 7233,
      "Not": 7234,
      "ĠForm": 7235,
      "Ġencourages": 7236,
      "Ġminimum": 7237,
      "Ġinstruction": 7238,
      "Ġdust": 7239,
      "lla": 7240,
      "Ġbirthday": 7241,
      "Ġtransp": 7242,
      "angle": 7243,
      "ixture": 7244,
      "essor": 7245,
      "Ġdemonstrate": 7246,
      "Ġconcentration": 7247,
      "Ġachieved": 7248,
      "ĠChildren": 7249,
      "Ġsamples": 7250,
      "sequent": 7251,
      "Ġnervous": 7252,
      "Ġwag": 7253,
      "imens": 7254,
      "Ġintroduction": 7255,
      "zen": 7256,
      "stract": 7257,
      "ĠEconom": 7258,
      "ĠGroup": 7259,
      "ĠLearning": 7260,
      "isters": 7261,
      "Ġmood": 7262,
      "Ġhardware": 7263,
      "Ġrhyth": 7264,
      "kl": 7265,
      "Ġending": 7266,
      "ĠLib": 7267,
      "ada": 7268,
      "coming": 7269,
      "Ġcave": 7270,
      "ione": 7271,
      "import": 7272,
      "Ġrural": 7273,
      "ĠExamples": 7274,
      "Ġintroduce": 7275,
      "Ġexposed": 7276,
      "Ġexpressed": 7277,
      "ĠCare": 7278,
      "Ġyounger": 7279,
      "section": 7280,
      "Ġballoon": 7281,
      "Ġoppos": 7282,
      "Ġframework": 7283,
      "ĠGet": 7284,
      "Ġpartition": 7285,
      "ĠRetrieved": 7286,
      "ĠAdv": 7287,
      "Ġhonor": 7288,
      "itudes": 7289,
      "Ġzero": 7290,
      "Ġcontinuous": 7291,
      "ĠBible": 7292,
      "sub": 7293,
      "Ġ35": 7294,
      "adder": 7295,
      "wo": 7296,
      "æĸ": 7297,
      "Ġmoist": 7298,
      "Ġcaptiv": 7299,
      "Ġcommitment": 7300,
      "Ġthereby": 7301,
      "Ġinsert": 7302,
      "Ġcomments": 7303,
      "ĠRef": 7304,
      "Ġautomatically": 7305,
      "Ġborder": 7306,
      "Ġdiscussing": 7307,
      "Ġcrisis": 7308,
      "âĢĿ,": 7309,
      "Ġproport": 7310,
      "Ġmarg": 7311,
      "ĠSum": 7312,
      "ĠGal": 7313,
      "Key": 7314,
      "ĠStreet": 7315,
      "Ġexplicit": 7316,
      "ĠMedical": 7317,
      "Ġawk": 7318,
      "Ġchrom": 7319,
      "Ġconflicts": 7320,
      "Ġunable": 7321,
      "Ġclassic": 7322,
      "udo": 7323,
      "esson": 7324,
      "case": 7325,
      "ua": 7326,
      "Ġchart": 7327,
      "sen": 7328,
      "Ġsav": 7329,
      "Maybe": 7330,
      "Ġdut": 7331,
      "ressed": 7332,
      "Ġaudio": 7333,
      "Ġ`.": 7334,
      "ĠĊĠĊ": 7335,
      "heast": 7336,
      "Ġhopped": 7337,
      "ĠFree": 7338,
      "Ġoccasion": 7339,
      "Ġadministration": 7340,
      "DA": 7341,
      "Ġabuse": 7342,
      "Ġimprovement": 7343,
      "ĠKnow": 7344,
      "ano": 7345,
      "Ġhabits": 7346,
      "ĠMel": 7347,
      "ĠJen": 7348,
      "claim": 7349,
      "Ġpartnership": 7350,
      "Ġlit": 7351,
      "Ġsilly": 7352,
      "Ġalb": 7353,
      "avors": 7354,
      "Ġ1960": 7355,
      "Ġsan": 7356,
      "Ġfib": 7357,
      "Ġstages": 7358,
      "Ġclothing": 7359,
      "AB": 7360,
      "ship": 7361,
      "ĠExper": 7362,
      "asive": 7363,
      "ĠBill": 7364,
      "ferent": 7365,
      "Ġelectron": 7366,
      "Ġhorm": 7367,
      "Ġ2018": 7368,
      "Ġadvert": 7369,
      "ipedia": 7370,
      "Ġproduc": 7371,
      "ĠTer": 7372,
      "OC": 7373,
      "Ġnoun": 7374,
      "Ġfilms": 7375,
      "Ġnap": 7376,
      "Ġraw": 7377,
      "Ġpracticing": 7378,
      "osit": 7379,
      "Ġprem": 7380,
      "Ġhumanity": 7381,
      "Ġlifest": 7382,
      "Ġfro": 7383,
      "ĠSk": 7384,
      "sey": 7385,
      "ĠWomen": 7386,
      "Ġaward": 7387,
      "Ġdescript": 7388,
      "Ġpositions": 7389,
      "Ġinspiration": 7390,
      "IR": 7391,
      "aa": 7392,
      "ĠDiv": 7393,
      "rink": 7394,
      "Ġsurvive": 7395,
      "])": 7396,
      "Ġconnecting": 7397,
      "plot": 7398,
      "Ġtranslated": 7399,
      "Ġcandy": 7400,
      "Ġdestination": 7401,
      "Ġdesire": 7402,
      "ĠChic": 7403,
      "Ġaccessible": 7404,
      "________": 7405,
      "Ġ!": 7406,
      "Ġindicates": 7407,
      "uses": 7408,
      "htt": 7409,
      "Ġmamm": 7410,
      "ĠNations": 7411,
      "Ġjar": 7412,
      "Ġlone": 7413,
      "ĠMean": 7414,
      "Ġsnake": 7415,
      "Ġsupplies": 7416,
      "Ġelection": 7417,
      "Ġrevealed": 7418,
      "ĠBuddy": 7419,
      "Ġalph": 7420,
      "Ġprominent": 7421,
      "Ġconcerned": 7422,
      "Ġpackages": 7423,
      "Ġtheories": 7424,
      "Ġalive": 7425,
      "Ġvitamin": 7426,
      "pread": 7427,
      "ãģĹãģŁ": 7428,
      "Ġseconds": 7429,
      "tra": 7430,
      "Ġspoken": 7431,
      "you": 7432,
      "ĠStat": 7433,
      "Ġcrew": 7434,
      "Ġcontributions": 7435,
      "ĊĊĊĊ": 7436,
      "Ġmarkets": 7437,
      "ĠControl": 7438,
      "Ġconqu": 7439,
      "ieval": 7440,
      "Ġmodule": 7441,
      "Ġencounter": 7442,
      "Ġathlet": 7443,
      "Ġclassical": 7444,
      "Ġembracing": 7445,
      "athered": 7446,
      "Ġnit": 7447,
      "Ġtreasure": 7448,
      "Ġexplored": 7449,
      "kins": 7450,
      "ĠCy": 7451,
      "Ġloyal": 7452,
      "ĠInf": 7453,
      "ĠCP": 7454,
      "erves": 7455,
      "ĠLong": 7456,
      "Ġengaged": 7457,
      "Ġdemonstrated": 7458,
      "Ġeager": 7459,
      "Ġcorn": 7460,
      "Ġcrime": 7461,
      "Ġpra": 7462,
      "85": 7463,
      "umps": 7464,
      "Ġpossibilities": 7465,
      "ĠCommission": 7466,
      "Ġnutrients": 7467,
      "Ġremarkable": 7468,
      "Ġaest": 7469,
      "Ġbiggest": 7470,
      "idespread": 7471,
      "Ġlimits": 7472,
      "Ġprinciple": 7473,
      "Ġputting": 7474,
      "trans": 7475,
      "Ġconvey": 7476,
      "Ġmathematical": 7477,
      "rd": 7478,
      "ĠPet": 7479,
      "Ġcrops": 7480,
      "ĠSaf": 7481,
      "ĠCap": 7482,
      "Ġroof": 7483,
      "ĠCreat": 7484,
      "Ġ2020": 7485,
      "Ġteen": 7486,
      "Ġagency": 7487,
      "Ġchest": 7488,
      "Ġalgorithm": 7489,
      "Ġmemories": 7490,
      "$$": 7491,
      "46": 7492,
      "Am": 7493,
      "ctic": 7494,
      "rid": 7495,
      "ĠSpe": 7496,
      "ĠBilly": 7497,
      "ĠRichard": 7498,
      "Ġbones": 7499,
      "Ġgreatly": 7500,
      "Ġregardless": 7501,
      "Ġevolved": 7502,
      "Ġincorporate": 7503,
      "Lucy": 7504,
      "Welcome": 7505,
      "Ġexplo": 7506,
      "Ġalgorithms": 7507,
      "ĠIslamic": 7508,
      "isher": 7509,
      "Ġboost": 7510,
      "Ġinsects": 7511,
      "Ġpsychological": 7512,
      "Ġgif": 7513,
      "Ġ->": 7514,
      "Ġfunding": 7515,
      "ĠMedicine": 7516,
      "79": 7517,
      "Ġcas": 7518,
      "Inst": 7519,
      "Other": 7520,
      "Ġcontrovers": 7521,
      "soft": 7522,
      "Ġfocuses": 7523,
      "Well": 7524,
      "Ġtough": 7525,
      "asty": 7526,
      "ãģ¾": 7527,
      "Ġrolled": 7528,
      "ĠEth": 7529,
      "Ġcurric": 7530,
      "agues": 7531,
      "aped": 7532,
      "ala": 7533,
      "Ġlemon": 7534,
      "ĠDig": 7535,
      "ptions": 7536,
      "OK": 7537,
      "Ġsculpt": 7538,
      "Ġdreams": 7539,
      "Ġfoss": 7540,
      "aded": 7541,
      "ĠCurrent": 7542,
      "vity": 7543,
      "Ġhappiness": 7544,
      "Ġspending": 7545,
      "Ġvote": 7546,
      "Ġcharacterized": 7547,
      "49": 7548,
      "Ġlights": 7549,
      "Ġ500": 7550,
      "ĠStudies": 7551,
      "abel": 7552,
      "Most": 7553,
      "rate": 7554,
      "rics": 7555,
      "Ġbub": 7556,
      "oto": 7557,
      "osh": 7558,
      "IG": 7559,
      "ING": 7560,
      "Ġenzy": 7561,
      "Ġpassage": 7562,
      "Ġsatisf": 7563,
      "Ġguard": 7564,
      "Ġsuffering": 7565,
      "Ġpoetry": 7566,
      "isa": 7567,
      "Ġcats": 7568,
      "Ġinfections": 7569,
      "zil": 7570,
      "Ġrank": 7571,
      "Ġ==": 7572,
      "holders": 7573,
      "Spot": 7574,
      "Ġitem": 7575,
      "itar": 7576,
      "Ġnarrow": 7577,
      "ĠSouthern": 7578,
      "Ġbeings": 7579,
      "ĠRights": 7580,
      "compass": 7581,
      "ĠChristianity": 7582,
      "ĠLittle": 7583,
      "Ġtransition": 7584,
      "Ġoven": 7585,
      "Ġupset": 7586,
      "Ġprev": 7587,
      "Ġcrying": 7588,
      "Ġwal": 7589,
      "Ġemotion": 7590,
      "Ġsubstance": 7591,
      "Ġwildlife": 7592,
      "Ġdialect": 7593,
      "ĠNon": 7594,
      "ĠAsian": 7595,
      "otal": 7596,
      "ocracy": 7597,
      "Ġconcerning": 7598,
      "Ġcategories": 7599,
      "Ġvibrant": 7600,
      "lymp": 7601,
      "Ġhaven": 7602,
      "Ġsauce": 7603,
      "ĠViet": 7604,
      "found": 7605,
      "ivery": 7606,
      "ifest": 7607,
      "oples": 7608,
      "Ġreput": 7609,
      "Ġfinger": 7610,
      "Ġprofessor": 7611,
      "Ġinterpretation": 7612,
      "aria": 7613,
      "Ġchief": 7614,
      "Ġfarmer": 7615,
      "Ġfocusing": 7616,
      "Every": 7617,
      "ventions": 7618,
      "Ġmetab": 7619,
      "Ġthreats": 7620,
      "Ġpreserving": 7621,
      "Ġclock": 7622,
      "Ġaffecting": 7623,
      "cluded": 7624,
      "ĠEnergy": 7625,
      "bi": 7626,
      "erved": 7627,
      "Ġstability": 7628,
      "Ġcoc": 7629,
      "Ġsheet": 7630,
      "ĠJe": 7631,
      "aval": 7632,
      "ographical": 7633,
      "Ġwidespread": 7634,
      "operation": 7635,
      "ĠStudy": 7636,
      "Ġcher": 7637,
      "Ġrealize": 7638,
      "Ġsatell": 7639,
      "Ġdrawn": 7640,
      "Ġscore": 7641,
      "Ġperforming": 7642,
      "Ġaer": 7643,
      "ĠĠĠĠĠĠĠ": 7644,
      "====": 7645,
      "Ġexamination": 7646,
      "\";": 7647,
      "Ġvoc": 7648,
      "Ġfeat": 7649,
      "Ġkm": 7650,
      "ĠUt": 7651,
      "Ġreward": 7652,
      "Ġhoped": 7653,
      "Despite": 7654,
      "Ġmeasured": 7655,
      "usiness": 7656,
      "ãĤ¹": 7657,
      "Ġuncertain": 7658,
      "ĠSund": 7659,
      "action": 7660,
      "cs": 7661,
      "Ġstake": 7662,
      "this": 7663,
      "`)": 7664,
      "Ġfairy": 7665,
      "Ġrobust": 7666,
      "ãģĻãĤĭ": 7667,
      "Ġsurve": 7668,
      "ito": 7669,
      "Ġprocedure": 7670,
      "Read": 7671,
      "itivity": 7672,
      "oxide": 7673,
      "system": 7674,
      "ĠEnd": 7675,
      "rub": 7676,
      "Ġsubsequent": 7677,
      "Ġlibraries": 7678,
      "Ġadvantages": 7679,
      "ĠNews": 7680,
      "Ġcarrying": 7681,
      "Ġadvancements": 7682,
      "Ġmum": 7683,
      "Ġexcit": 7684,
      "ĠLo": 7685,
      "Ġtreats": 7686,
      "Ġ1999": 7687,
      "Ġmanufacturing": 7688,
      "iated": 7689,
      "Ġpersons": 7690,
      "Ġdifferently": 7691,
      "Ġ2019": 7692,
      "Ġresist": 7693,
      "ĠAlbert": 7694,
      "lessly": 7695,
      "Ġpermission": 7696,
      "night": 7697,
      "ĠBattle": 7698,
      "ĠFederal": 7699,
      "Ġarrest": 7700,
      "antly": 7701,
      "omer": 7702,
      "Ġconvert": 7703,
      "Ġhabitat": 7704,
      "Me": 7705,
      "Ġcable": 7706,
      "itz": 7707,
      "Ġhall": 7708,
      "Ġlaunch": 7709,
      "Com": 7710,
      "telling": 7711,
      "Ġelder": 7712,
      "ĠAcademy": 7713,
      "aren": 7714,
      "Ġdevelopments": 7715,
      "Ġstores": 7716,
      "Ġfacilitate": 7717,
      "ĠSuper": 7718,
      "quality": 7719,
      "Ġadequ": 7720,
      "ras": 7721,
      "Ġconsumers": 7722,
      "Ġdealing": 7723,
      "ĠDog": 7724,
      "tar": 7725,
      "Ġlens": 7726,
      "ĠCur": 7727,
      "Ġnecessarily": 7728,
      "mail": 7729,
      "Ġparameters": 7730,
      "script": 7731,
      "Ġnom": 7732,
      "Ġhaz": 7733,
      "Ġcomplicated": 7734,
      "Ġplanned": 7735,
      "ĠLibrary": 7736,
      "Ġtranslate": 7737,
      "Ġreactions": 7738,
      "Ġhusband": 7739,
      "jective": 7740,
      "hesis": 7741,
      "Ġdelay": 7742,
      "Ġinvestigation": 7743,
      "Ġsummary": 7744,
      "Ġacknowled": 7745,
      "okes": 7746,
      "Ġrequiring": 7747,
      "ordinary": 7748,
      "Ġsafely": 7749,
      "ota": 7750,
      "izer": 7751,
      "Ġdanced": 7752,
      "ĠLake": 7753,
      "Ġreson": 7754,
      "ĠRead": 7755,
      "Ġ45": 7756,
      "Ġminds": 7757,
      "hell": 7758,
      "Ġaccuracy": 7759,
      "Ġhiding": 7760,
      "Ġpercentage": 7761,
      "Ġtransmission": 7762,
      "Ġsin": 7763,
      "Ġopposite": 7764,
      "orph": 7765,
      "ãĥĪ": 7766,
      "Ġclouds": 7767,
      "Ġunw": 7768,
      "Ġdoubt": 7769,
      "rets": 7770,
      "Ġfewer": 7771,
      "Ġpray": 7772,
      "Ġsimultaneously": 7773,
      "eenth": 7774,
      "Ġmoves": 7775,
      "ye": 7776,
      "Ġpapers": 7777,
      "ĠMa": 7778,
      "Ġcolonial": 7779,
      "Ġextensive": 7780,
      "makers": 7781,
      "Ġcompare": 7782,
      "Ġflash": 7783,
      "OL": 7784,
      "organ": 7785,
      "Ġtomat": 7786,
      "Ġbrush": 7787,
      "ĠEngine": 7788,
      "pat": 7789,
      "Ġsmoke": 7790,
      "Ġmathematics": 7791,
      "ĠFed": 7792,
      "Ġsuit": 7793,
      "Ġ32": 7794,
      "ĠScient": 7795,
      "Ġcontexts": 7796,
      "ĠAbout": 7797,
      "ĠOlymp": 7798,
      "Ġinjuries": 7799,
      "PC": 7800,
      "cient": 7801,
      "Ġcapabilities": 7802,
      "ĠColumb": 7803,
      "Ġgradually": 7804,
      "HT": 7805,
      "Ġnine": 7806,
      "Ġfinds": 7807,
      "Ġphoto": 7808,
      "Ġcalling": 7809,
      "OU": 7810,
      "ĠAge": 7811,
      "ĠNorthern": 7812,
      "Ġintent": 7813,
      "Ġregul": 7814,
      "va": 7815,
      "open": 7816,
      "Ġrid": 7817,
      "Ġprotocol": 7818,
      "Ġoverwhel": 7819,
      "inction": 7820,
      "Ġlingu": 7821,
      "Ġexplains": 7822,
      "Ġevening": 7823,
      "Ġpretend": 7824,
      "fix": 7825,
      "Ġpassing": 7826,
      "Ġbonds": 7827,
      "ih": 7828,
      "Ġsessions": 7829,
      "Ġped": 7830,
      "Ġflexible": 7831,
      "ĠMu": 7832,
      "ishment": 7833,
      "Ġallerg": 7834,
      "Ġagencies": 7835,
      "rine": 7836,
      "abul": 7837,
      "ĠJo": 7838,
      "omach": 7839,
      "DF": 7840,
      "Ġprove": 7841,
      "Ġproceed": 7842,
      "osph": 7843,
      "Ġphotograph": 7844,
      "Ġemphasis": 7845,
      "Ġdemands": 7846,
      "Ġdebate": 7847,
      "Ġenhancing": 7848,
      "ĠHIV": 7849,
      "Ġinstances": 7850,
      "bur": 7851,
      "Ġresulted": 7852,
      "iest": 7853,
      "ĠCamp": 7854,
      "Ġneither": 7855,
      "****": 7856,
      "Ġcompr": 7857,
      "oured": 7858,
      "Ġislands": 7859,
      "Ġpreserve": 7860,
      "ĠMrs": 7861,
      "Ġreveal": 7862,
      "Ġcomposition": 7863,
      "Ġswimming": 7864,
      "ften": 7865,
      "Good": 7866,
      "fe": 7867,
      "Ġattach": 7868,
      "Who": 7869,
      "Ġpossibility": 7870,
      "ĊĠĠĠĠĠĠĠĠĠ": 7871,
      "Ġclust": 7872,
      "Ġinspire": 7873,
      "Ġfabric": 7874,
      "berry": 7875,
      "ĠAtlantic": 7876,
      "Ġgro": 7877,
      "ĠOtt": 7878,
      "Ġchildhood": 7879,
      "Ġbroadcast": 7880,
      "Ġmand": 7881,
      "oston": 7882,
      "eddy": 7883,
      "ĠAR": 7884,
      "ĠThose": 7885,
      "Ġreader": 7886,
      "Ġvisitors": 7887,
      "inn": 7888,
      "ndrome": 7889,
      "ĠTake": 7890,
      "Ġ31": 7891,
      "Ġmutual": 7892,
      "Ed": 7893,
      "Ġvideos": 7894,
      "Ġafra": 7895,
      "Ġsteel": 7896,
      "Ġintrig": 7897,
      "iture": 7898,
      "ĠInformation": 7899,
      "Ġadds": 7900,
      "onym": 7901,
      "Ġamidst": 7902,
      "Ġships": 7903,
      "lements": 7904,
      "Ġmechanism": 7905,
      "Ġparallel": 7906,
      "ĠJoseph": 7907,
      "Ġafraid": 7908,
      "Ġoral": 7909,
      "Ġsigned": 7910,
      "Ġeastern": 7911,
      "Ġroyal": 7912,
      "Ġwellbeing": 7913,
      "Ġnutrition": 7914,
      "Ġwine": 7915,
      "Ġovercome": 7916,
      "Ġimplemented": 7917,
      "ĠColl": 7918,
      "Ġwebsites": 7919,
      "66": 7920,
      "ĠBab": 7921,
      "Ġembark": 7922,
      "Ġprotecting": 7923,
      "Ġimplementing": 7924,
      "Ġpartner": 7925,
      "Ġbugs": 7926,
      "asters": 7927,
      "ĠOcean": 7928,
      "ĠEarly": 7929,
      "ĠOffice": 7930,
      "ĠTry": 7931,
      "Ġcontributed": 7932,
      "ĠRad": 7933,
      "ishop": 7934,
      "Ġrepair": 7935,
      "ommod": 7936,
      "ĠHistorical": 7937,
      "ĠScot": 7938,
      "ateful": 7939,
      "Ġages": 7940,
      "Ġsustainability": 7941,
      "ĠMartin": 7942,
      "Ġsang": 7943,
      "ĠDebian": 7944,
      "Ġpurchase": 7945,
      "PT": 7946,
      "acts": 7947,
      "Ġracial": 7948,
      "live": 7949,
      "Ġresc": 7950,
      "aven": 7951,
      "ĠFoundation": 7952,
      "Ġtasty": 7953,
      "Ġacceler": 7954,
      "Ġdivision": 7955,
      "Ġalle": 7956,
      "wing": 7957,
      "Ġpud": 7958,
      "ĠMoon": 7959,
      "ĠVirginia": 7960,
      "Ġgrade": 7961,
      "erals": 7962,
      "lets": 7963,
      "Ġbench": 7964,
      "Ġoperate": 7965,
      "168": 7966,
      "Ġblanket": 7967,
      "ĠMill": 7968,
      "Ġjew": 7969,
      "ĠAmaz": 7970,
      "ĠNetwork": 7971,
      "Ġlonely": 7972,
      "Ġobtain": 7973,
      "forcement": 7974,
      "Ġsections": 7975,
      "Ġcontributing": 7976,
      "Ġgeomet": 7977,
      "olving": 7978,
      "ĠDen": 7979,
      "Ġusual": 7980,
      "izza": 7981,
      "Ġimmediate": 7982,
      "Ġprincip": 7983,
      "Ġkanji": 7984,
      "Ġapplying": 7985,
      "Ġtone": 7986,
      "ĠTor": 7987,
      "ãĤ¤": 7988,
      "Ġdeclared": 7989,
      "Ġgrammar": 7990,
      "Ġexperiments": 7991,
      "Ġwore": 7992,
      "ĠUlt": 7993,
      "Ġacids": 7994,
      "Ġphysics": 7995,
      "Ġdirt": 7996,
      "Ġlie": 7997,
      "Ġminute": 7998,
      "ĠĠĊĠĠ": 7999,
      "ĠSing": 8000,
      "ĠTimes": 8001,
      "Ġveter": 8002,
      "Ġconj": 8003,
      "ĠJul": 8004,
      "scale": 8005,
      "iki": 8006,
      "neys": 8007,
      "Ġexcitement": 8008,
      "Ġcriter": 8009,
      "Ġsandw": 8010,
      "ĠChicago": 8011,
      "Te": 8012,
      "cher": 8013,
      "\">": 8014,
      "Ġsmiles": 8015,
      "Ġdragon": 8016,
      "Ġtables": 8017,
      "Ġgall": 8018,
      "Ġshaped": 8019,
      "esides": 8020,
      "ieties": 8021,
      "Ġlaunched": 8022,
      "ĠHT": 8023,
      "Ġneur": 8024,
      "Ġmolecules": 8025,
      "Ġweapons": 8026,
      "Ġtab": 8027,
      "ani": 8028,
      "Ġfairly": 8029,
      "Ġdecline": 8030,
      "Ġanywhere": 8031,
      "Ġlaughing": 8032,
      "ĠNature": 8033,
      "Ġconsideration": 8034,
      "ĠJohnson": 8035,
      "Next": 8036,
      "Ġsour": 8037,
      "Ġempower": 8038,
      "ĠVietnam": 8039,
      "Ġinfluences": 8040,
      "Ġenthusi": 8041,
      "Ġtomorrow": 8042,
      "Ġtelling": 8043,
      "Ġcategory": 8044,
      "Ġworse": 8045,
      "grade": 8046,
      "Ġrefuge": 8047,
      "ĠEnvironmental": 8048,
      "Ġwheel": 8049,
      "Ġspray": 8050,
      "Ġvisited": 8051,
      "Ġvictory": 8052,
      "Ġspecialized": 8053,
      "Ġfunds": 8054,
      "Ġclaimed": 8055,
      "Ġqualities": 8056,
      "Ġcombat": 8057,
      "Ġmild": 8058,
      "HP": 8059,
      "fit": 8060,
      "Ġgathered": 8061,
      "65": 8062,
      "iat": 8063,
      "wall": 8064,
      "Ġ300": 8065,
      "Ġwra": 8066,
      "Ġstir": 8067,
      "rape": 8068,
      "Ġchose": 8069,
      "Ġidentifying": 8070,
      "Ġanalyzing": 8071,
      "Ġdestroyed": 8072,
      "Ġchat": 8073,
      "Ġpacket": 8074,
      "Ġmixture": 8075,
      "Ġconsole": 8076,
      "Ġhousing": 8077,
      "Ġmysterious": 8078,
      "ĠÎ": 8079,
      "Ġimmun": 8080,
      "Ġphilosop": 8081,
      "Ġmenu": 8082,
      "Ġfer": 8083,
      "agraph": 8084,
      "Ġcompounds": 8085,
      "Ġuniform": 8086,
      "Ġcriminal": 8087,
      "Ġcommitted": 8088,
      "Ġreaching": 8089,
      "Ġfan": 8090,
      "Ġtoler": 8091,
      "ĠLiter": 8092,
      "Ġminimize": 8093,
      "Ġhydrogen": 8094,
      "Ġforming": 8095,
      "Ġrespectively": 8096,
      "ĠStart": 8097,
      "Ġcoin": 8098,
      "Ġinches": 8099,
      "Ġballs": 8100,
      "Ġbringing": 8101,
      "Ġsomewhere": 8102,
      "Ġ<|": 8103,
      "ĠPan": 8104,
      "Ġdelicate": 8105,
      "47": 8106,
      "Ġinstrument": 8107,
      "cons": 8108,
      "Ġ1998": 8109,
      "Ġnewspaper": 8110,
      "Ġspoke": 8111,
      "ename": 8112,
      "orses": 8113,
      "ĠBrazil": 8114,
      "Ġbreaking": 8115,
      "vin": 8116,
      "Ġsizes": 8117,
      "rooms": 8118,
      "Ġencompass": 8119,
      "Ġfurn": 8120,
      "Ġmitig": 8121,
      "Ġwilling": 8122,
      "------------": 8123,
      "Ġlearners": 8124,
      "Ġborrow": 8125,
      "Ġgray": 8126,
      "ĠHome": 8127,
      "ĠHind": 8128,
      "Ġdisag": 8129,
      "ascular": 8130,
      "mation": 8131,
      "Ġfulf": 8132,
      "Ġforests": 8133,
      "ĠIran": 8134,
      "='": 8135,
      "eg": 8136,
      "iano": 8137,
      "Ġguarant": 8138,
      "ãĥ«": 8139,
      "ĠMinister": 8140,
      "Ġcompetitive": 8141,
      "Ġsearching": 8142,
      "cture": 8143,
      "Ġparticipation": 8144,
      "requ": 8145,
      "Ġdelivery": 8146,
      "ĠSir": 8147,
      "Ġpreced": 8148,
      "ĠLeg": 8149,
      "Ġwel": 8150,
      "Ġdesert": 8151,
      "Ġfalls": 8152,
      "Ġbarriers": 8153,
      "Ġdanger": 8154,
      "andon": 8155,
      "Ġhandling": 8156,
      "Ġorigins": 8157,
      "Ġexpertise": 8158,
      "Ġscream": 8159,
      "Ġassert": 8160,
      "ĠWild": 8161,
      "ett": 8162,
      "ĠBig": 8163,
      "Ġdisrupt": 8164,
      "Ġmatrix": 8165,
      "Ġaims": 8166,
      "Ġbreathing": 8167,
      "Ġbeat": 8168,
      "Ġnovels": 8169,
      "imi": 8170,
      "ĠOnly": 8171,
      "Ġextraordinary": 8172,
      "Ġrepresenting": 8173,
      "pm": 8174,
      "rence": 8175,
      "Ġbattery": 8176,
      "Ġmovies": 8177,
      "Ġproviders": 8178,
      "ĠSci": 8179,
      "ĠHaw": 8180,
      "Today": 8181,
      "rene": 8182,
      "Ġaudiences": 8183,
      "Ġmountains": 8184,
      "ĠMer": 8185,
      "Ġnewly": 8186,
      "Ġfourth": 8187,
      "SQL": 8188,
      "Ġpolitician": 8189,
      "Ġnorms": 8190,
      "ĠPsych": 8191
    },
    "merges": [
      [
        "Ġ",
        "t"
      ],
      [
        "Ġ",
        "a"
      ],
      [
        "h",
        "e"
      ],
      [
        "i",
        "n"
      ],
      [
        "r",
        "e"
      ],
      [
        "Ġt",
        "he"
      ],
      [
        "o",
        "n"
      ],
      [
        "Ġ",
        "s"
      ],
      [
        "e",
        "r"
      ],
      [
        "n",
        "d"
      ],
      [
        "Ġ",
        "w"
      ],
      [
        "a",
        "t"
      ],
      [
        "Ġ",
        "c"
      ],
      [
        "Ġ",
        "o"
      ],
      [
        "e",
        "s"
      ],
      [
        "i",
        "t"
      ],
      [
        "e",
        "n"
      ],
      [
        "e",
        "d"
      ],
      [
        "Ġ",
        "b"
      ],
      [
        "i",
        "s"
      ],
      [
        "Ġ",
        "f"
      ],
      [
        "in",
        "g"
      ],
      [
        "Ġ",
        "p"
      ],
      [
        "o",
        "r"
      ],
      [
        "a",
        "n"
      ],
      [
        "o",
        "u"
      ],
      [
        "a",
        "l"
      ],
      [
        "Ġt",
        "o"
      ],
      [
        "Ġa",
        "nd"
      ],
      [
        "a",
        "r"
      ],
      [
        "Ġ",
        "m"
      ],
      [
        "Ġ",
        "d"
      ],
      [
        "Ġ",
        "in"
      ],
      [
        "Ġo",
        "f"
      ],
      [
        "i",
        "on"
      ],
      [
        "i",
        "c"
      ],
      [
        "Ġ",
        "h"
      ],
      [
        "l",
        "e"
      ],
      [
        "a",
        "s"
      ],
      [
        "o",
        "m"
      ],
      [
        "Ġ",
        "Ġ"
      ],
      [
        "Ġ",
        "l"
      ],
      [
        "Ġt",
        "h"
      ],
      [
        "Ġ",
        "e"
      ],
      [
        "en",
        "t"
      ],
      [
        "Ġ",
        "T"
      ],
      [
        "Ġ",
        "n"
      ],
      [
        "i",
        "l"
      ],
      [
        "i",
        "m"
      ],
      [
        "r",
        "o"
      ],
      [
        "s",
        "t"
      ],
      [
        "c",
        "t"
      ],
      [
        "Ġ",
        "re"
      ],
      [
        "v",
        "e"
      ],
      [
        "e",
        "t"
      ],
      [
        "i",
        "d"
      ],
      [
        "Ġ",
        "g"
      ],
      [
        "a",
        "y"
      ],
      [
        "l",
        "y"
      ],
      [
        "u",
        "t"
      ],
      [
        "o",
        "t"
      ],
      [
        "o",
        "w"
      ],
      [
        "Ġ",
        "u"
      ],
      [
        "Ġ",
        "S"
      ],
      [
        "s",
        "e"
      ],
      [
        "i",
        "g"
      ],
      [
        "a",
        "m"
      ],
      [
        "Ġb",
        "e"
      ],
      [
        "c",
        "e"
      ],
      [
        "o",
        "l"
      ],
      [
        "a",
        "d"
      ],
      [
        "Ġ",
        "I"
      ],
      [
        "Ġ",
        "is"
      ],
      [
        "Ġ",
        "he"
      ],
      [
        "v",
        "er"
      ],
      [
        "Ġ",
        "y"
      ],
      [
        "i",
        "r"
      ],
      [
        "c",
        "h"
      ],
      [
        "at",
        "ion"
      ],
      [
        "u",
        "r"
      ],
      [
        "Ġ",
        "A"
      ],
      [
        "Ġs",
        "t"
      ],
      [
        "Ġf",
        "or"
      ],
      [
        "Ġ",
        "on"
      ],
      [
        "ĠT",
        "he"
      ],
      [
        "it",
        "h"
      ],
      [
        "Ġ",
        "it"
      ],
      [
        "Ġw",
        "as"
      ],
      [
        "Ġth",
        "at"
      ],
      [
        "Ġy",
        "ou"
      ],
      [
        "e",
        "l"
      ],
      [
        "Ġw",
        "ith"
      ],
      [
        "u",
        "l"
      ],
      [
        "r",
        "a"
      ],
      [
        "Ġ",
        "C"
      ],
      [
        "es",
        "t"
      ],
      [
        "Ġa",
        "s"
      ],
      [
        "Ġw",
        "h"
      ],
      [
        "r",
        "i"
      ],
      [
        "Ġa",
        "n"
      ],
      [
        "he",
        "r"
      ],
      [
        "Ġc",
        "on"
      ],
      [
        "Ġ",
        "H"
      ],
      [
        "i",
        "f"
      ],
      [
        "Ġa",
        "l"
      ],
      [
        "t",
        "er"
      ],
      [
        "â",
        "Ģ"
      ],
      [
        "p",
        "p"
      ],
      [
        "Ġ",
        "M"
      ],
      [
        "Ġh",
        "a"
      ],
      [
        "k",
        "e"
      ],
      [
        "o",
        "d"
      ],
      [
        "l",
        "d"
      ],
      [
        "Ġ",
        "B"
      ],
      [
        "Ġe",
        "x"
      ],
      [
        "is",
        "t"
      ],
      [
        "an",
        "t"
      ],
      [
        "Ġo",
        "r"
      ],
      [
        "a",
        "g"
      ],
      [
        "Ġ",
        "W"
      ],
      [
        "Ġp",
        "ro"
      ],
      [
        "e",
        "re"
      ],
      [
        "u",
        "n"
      ],
      [
        "e",
        "m"
      ],
      [
        "u",
        "s"
      ],
      [
        "Ġ",
        "("
      ],
      [
        "er",
        "s"
      ],
      [
        "Ġa",
        "re"
      ],
      [
        "at",
        "e"
      ],
      [
        "Ġc",
        "om"
      ],
      [
        "ĠĠ",
        "ĠĠ"
      ],
      [
        "a",
        "c"
      ],
      [
        "es",
        "s"
      ],
      [
        "o",
        "re"
      ],
      [
        "p",
        "e"
      ],
      [
        "u",
        "m"
      ],
      [
        "Ġ",
        "\""
      ],
      [
        "t",
        "h"
      ],
      [
        "a",
        "b"
      ],
      [
        "il",
        "l"
      ],
      [
        "Ġ",
        "1"
      ],
      [
        "Ġ",
        "P"
      ],
      [
        "r",
        "om"
      ],
      [
        "u",
        "re"
      ],
      [
        "o",
        "p"
      ],
      [
        "'",
        "s"
      ],
      [
        "i",
        "es"
      ],
      [
        "Ġp",
        "l"
      ],
      [
        "Ġd",
        "e"
      ],
      [
        "q",
        "u"
      ],
      [
        "Ġ",
        "v"
      ],
      [
        "Ġ",
        "r"
      ],
      [
        "Ġs",
        "e"
      ],
      [
        "h",
        "t"
      ],
      [
        "Ġs",
        "a"
      ],
      [
        "Ġn",
        "e"
      ],
      [
        "i",
        "ve"
      ],
      [
        "a",
        "in"
      ],
      [
        "it",
        "y"
      ],
      [
        "ar",
        "t"
      ],
      [
        "Ġ",
        "L"
      ],
      [
        "al",
        "l"
      ],
      [
        "a",
        "nd"
      ],
      [
        "Ġc",
        "an"
      ],
      [
        "i",
        "v"
      ],
      [
        "Ġn",
        "ot"
      ],
      [
        "Ġa",
        "t"
      ],
      [
        "o",
        "s"
      ],
      [
        "n",
        "t"
      ],
      [
        "Ġs",
        "u"
      ],
      [
        "Ġs",
        "h"
      ],
      [
        "Ġ",
        "le"
      ],
      [
        "o",
        "c"
      ],
      [
        "ou",
        "ld"
      ],
      [
        "Ġc",
        "h"
      ],
      [
        "Ġ",
        "D"
      ],
      [
        "m",
        "ent"
      ],
      [
        "Ġ",
        "E"
      ],
      [
        "Ġ",
        "F"
      ],
      [
        "o",
        "g"
      ],
      [
        "Ġb",
        "y"
      ],
      [
        "r",
        "ou"
      ],
      [
        "or",
        "t"
      ],
      [
        "re",
        "s"
      ],
      [
        "om",
        "e"
      ],
      [
        "-",
        "-"
      ],
      [
        "Ġf",
        "rom"
      ],
      [
        "u",
        "d"
      ],
      [
        "i",
        "al"
      ],
      [
        "e",
        "ct"
      ],
      [
        "Ġthe",
        "y"
      ],
      [
        "Ġ",
        "R"
      ],
      [
        "e",
        "nd"
      ],
      [
        "n",
        "s"
      ],
      [
        "Ġ",
        "k"
      ],
      [
        "ou",
        "t"
      ],
      [
        "ig",
        "ht"
      ],
      [
        "p",
        "t"
      ],
      [
        "Ġth",
        "is"
      ],
      [
        "Ġh",
        "is"
      ],
      [
        "Ġha",
        "ve"
      ],
      [
        "ic",
        "al"
      ],
      [
        "o",
        "k"
      ],
      [
        "Ġw",
        "or"
      ],
      [
        "p",
        "l"
      ],
      [
        "ar",
        "d"
      ],
      [
        "Ġu",
        "s"
      ],
      [
        "Ġa",
        "b"
      ],
      [
        "a",
        "re"
      ],
      [
        "ion",
        "s"
      ],
      [
        "Ċ",
        "ĠĠĠĠ"
      ],
      [
        "ver",
        "y"
      ],
      [
        "Ġ",
        "G"
      ],
      [
        "id",
        "e"
      ],
      [
        "Ġ",
        "N"
      ],
      [
        "Ġw",
        "e"
      ],
      [
        "u",
        "st"
      ],
      [
        "Ġthe",
        "ir"
      ],
      [
        "Ġin",
        "t"
      ],
      [
        "t",
        "her"
      ],
      [
        "T",
        "he"
      ],
      [
        "in",
        "e"
      ],
      [
        "Ġ",
        "en"
      ],
      [
        "Ġ",
        "2"
      ],
      [
        "Ġd",
        "o"
      ],
      [
        "Ġl",
        "i"
      ],
      [
        "ĠH",
        "e"
      ],
      [
        "Ġ",
        "O"
      ],
      [
        "g",
        "e"
      ],
      [
        "Ġal",
        "l"
      ],
      [
        "ĠThe",
        "y"
      ],
      [
        "n",
        "e"
      ],
      [
        "Ġw",
        "he"
      ],
      [
        "Ġb",
        "ut"
      ],
      [
        "ĠĠ",
        "Ġ"
      ],
      [
        "Ġhe",
        "r"
      ],
      [
        "ou",
        "r"
      ],
      [
        "in",
        "d"
      ],
      [
        "Ġu",
        "p"
      ],
      [
        "am",
        "e"
      ],
      [
        "Ġyou",
        "r"
      ],
      [
        "Ġ",
        "im"
      ],
      [
        "el",
        "l"
      ],
      [
        "Ġl",
        "o"
      ],
      [
        "est",
        "ion"
      ],
      [
        "Ġm",
        "e"
      ],
      [
        "w",
        "er"
      ],
      [
        "i",
        "z"
      ],
      [
        "a",
        "k"
      ],
      [
        "ou",
        "s"
      ],
      [
        "p",
        "er"
      ],
      [
        "r",
        "y"
      ],
      [
        "im",
        "e"
      ],
      [
        "ic",
        "h"
      ],
      [
        "on",
        "g"
      ],
      [
        "as",
        "t"
      ],
      [
        "Ġs",
        "o"
      ],
      [
        "Ġ",
        "j"
      ],
      [
        "Q",
        "u"
      ],
      [
        "Ġpl",
        "ay"
      ],
      [
        "an",
        "s"
      ],
      [
        "Ġ",
        "J"
      ],
      [
        "Ġg",
        "o"
      ],
      [
        "Ġd",
        "ay"
      ],
      [
        "Ġa",
        "d"
      ],
      [
        "g",
        "h"
      ],
      [
        "ac",
        "k"
      ],
      [
        "Ġsa",
        "id"
      ],
      [
        "Ġh",
        "ad"
      ],
      [
        "Ġw",
        "ere"
      ],
      [
        "a",
        "ct"
      ],
      [
        "0",
        "0"
      ],
      [
        "o",
        "st"
      ],
      [
        "f",
        "f"
      ],
      [
        "u",
        "e"
      ],
      [
        "at",
        "ed"
      ],
      [
        "Qu",
        "estion"
      ],
      [
        "ns",
        "wer"
      ],
      [
        "A",
        "nswer"
      ],
      [
        "Ġc",
        "l"
      ],
      [
        "Ġcon",
        "t"
      ],
      [
        "a",
        "ke"
      ],
      [
        "Ġthe",
        "re"
      ],
      [
        "ation",
        "s"
      ],
      [
        "a",
        "p"
      ],
      [
        "Ġm",
        "an"
      ],
      [
        "Ġcom",
        "p"
      ],
      [
        "ag",
        "e"
      ],
      [
        "i",
        "e"
      ],
      [
        "ul",
        "t"
      ],
      [
        "i",
        "le"
      ],
      [
        "i",
        "p"
      ],
      [
        "u",
        "c"
      ],
      [
        "il",
        "y"
      ],
      [
        "Ġ",
        "âĢ"
      ],
      [
        "as",
        "s"
      ],
      [
        "Ġt",
        "ime"
      ],
      [
        "i",
        "a"
      ],
      [
        "ab",
        "le"
      ],
      [
        "âĢ",
        "Ļ"
      ],
      [
        "Ġ",
        "U"
      ],
      [
        "on",
        "e"
      ],
      [
        "Ġo",
        "ther"
      ],
      [
        "ĠT",
        "h"
      ],
      [
        "i",
        "re"
      ],
      [
        "c",
        "c"
      ],
      [
        "Ġo",
        "ut"
      ],
      [
        "an",
        "ce"
      ],
      [
        "Ġd",
        "is"
      ],
      [
        "a",
        "ch"
      ],
      [
        "al",
        "ly"
      ],
      [
        "ar",
        "y"
      ],
      [
        "Ġre",
        "s"
      ],
      [
        "Ġw",
        "ill"
      ],
      [
        "Ġli",
        "ke"
      ],
      [
        "it",
        "t"
      ],
      [
        "Ġab",
        "out"
      ],
      [
        "Ġt",
        "r"
      ],
      [
        "ou",
        "nd"
      ],
      [
        "c",
        "l"
      ],
      [
        "ĠI",
        "t"
      ],
      [
        "i",
        "b"
      ],
      [
        "ic",
        "e"
      ],
      [
        "Ġwh",
        "ich"
      ],
      [
        "or",
        "m"
      ],
      [
        "Ġthe",
        "m"
      ],
      [
        "Ċ",
        "ĠĠĠ"
      ],
      [
        "Ġm",
        "ore"
      ],
      [
        "e",
        "ar"
      ],
      [
        "ĠS",
        "he"
      ],
      [
        "en",
        "ce"
      ],
      [
        "Ġs",
        "c"
      ],
      [
        "k",
        "ed"
      ],
      [
        "Ġs",
        "he"
      ],
      [
        "ĠI",
        "n"
      ],
      [
        "Ġw",
        "ant"
      ],
      [
        "Ġt",
        "e"
      ],
      [
        "a",
        "u"
      ],
      [
        "re",
        "at"
      ],
      [
        "a",
        "v"
      ],
      [
        "Ġhe",
        "l"
      ],
      [
        "n",
        "ow"
      ],
      [
        "Ġa",
        "r"
      ],
      [
        "e",
        "p"
      ],
      [
        "res",
        "s"
      ],
      [
        "ĠW",
        "h"
      ],
      [
        "s",
        "o"
      ],
      [
        "Ġon",
        "e"
      ],
      [
        "Ġs",
        "ome"
      ],
      [
        "Ġb",
        "o"
      ],
      [
        "ent",
        "s"
      ],
      [
        "Ġ",
        "ro"
      ],
      [
        "ve",
        "l"
      ],
      [
        "Ġha",
        "pp"
      ],
      [
        "Ġu",
        "n"
      ],
      [
        "*",
        "*"
      ],
      [
        "Ġa",
        "pp"
      ],
      [
        "re",
        "e"
      ],
      [
        "ri",
        "end"
      ],
      [
        "k",
        "s"
      ],
      [
        "is",
        "h"
      ],
      [
        "Ġh",
        "as"
      ],
      [
        "Ġb",
        "ig"
      ],
      [
        "ct",
        "ion"
      ],
      [
        "ĠT",
        "im"
      ],
      [
        "Ġhel",
        "p"
      ],
      [
        "Ġbe",
        "c"
      ],
      [
        "nd",
        "er"
      ],
      [
        "Ġim",
        "p"
      ],
      [
        "ing",
        "s"
      ],
      [
        "Ġs",
        "p"
      ],
      [
        "Ġwh",
        "o"
      ],
      [
        "or",
        "y"
      ],
      [
        "Ġwh",
        "at"
      ],
      [
        "'",
        "t"
      ],
      [
        "a",
        "ce"
      ],
      [
        "Ġf",
        "riend"
      ],
      [
        "Ġint",
        "o"
      ],
      [
        "Ġe",
        "v"
      ],
      [
        "b",
        "er"
      ],
      [
        "c",
        "es"
      ],
      [
        "Ġp",
        "re"
      ],
      [
        "Ġcom",
        "m"
      ],
      [
        "Ġs",
        "pe"
      ],
      [
        "at",
        "er"
      ],
      [
        "it",
        "e"
      ],
      [
        "ig",
        "n"
      ],
      [
        "an",
        "g"
      ],
      [
        "l",
        "ow"
      ],
      [
        "Ġs",
        "m"
      ],
      [
        "Ġw",
        "ould"
      ],
      [
        "as",
        "e"
      ],
      [
        "r",
        "u"
      ],
      [
        "Ġp",
        "er"
      ],
      [
        "Ġ",
        "`"
      ],
      [
        "Ġp",
        "art"
      ],
      [
        "Ġ",
        "very"
      ],
      [
        "o",
        "se"
      ],
      [
        "Ġwhe",
        "n"
      ],
      [
        "it",
        "ion"
      ],
      [
        "Ġ1",
        "9"
      ],
      [
        "Ġh",
        "ow"
      ],
      [
        ".",
        "\""
      ],
      [
        "Ġf",
        "e"
      ],
      [
        "--",
        "--"
      ],
      [
        "Ġ",
        "qu"
      ],
      [
        "or",
        "s"
      ],
      [
        "il",
        "d"
      ],
      [
        "Ġd",
        "id"
      ],
      [
        "v",
        "ed"
      ],
      [
        "o",
        "od"
      ],
      [
        "Ġal",
        "so"
      ],
      [
        "Ġp",
        "e"
      ],
      [
        "Ġ",
        "-"
      ],
      [
        "g",
        "et"
      ],
      [
        "Ġa",
        "g"
      ],
      [
        "Ġk",
        "now"
      ],
      [
        "ay",
        "s"
      ],
      [
        "he",
        "d"
      ],
      [
        "ã",
        "ģ"
      ],
      [
        "ou",
        "nt"
      ],
      [
        "Ġc",
        "ould"
      ],
      [
        "f",
        "ere"
      ],
      [
        "or",
        "d"
      ],
      [
        "Ġu",
        "nder"
      ],
      [
        "i",
        "an"
      ],
      [
        "Ġne",
        "w"
      ],
      [
        "f",
        "orm"
      ],
      [
        "on",
        "d"
      ],
      [
        "en",
        "s"
      ],
      [
        "Ġ",
        "Y"
      ],
      [
        "Ġ",
        "K"
      ],
      [
        "rou",
        "nd"
      ],
      [
        "l",
        "l"
      ],
      [
        "Ġb",
        "et"
      ],
      [
        "f",
        "ul"
      ],
      [
        "u",
        "b"
      ],
      [
        "Ġit",
        "s"
      ],
      [
        "et",
        "h"
      ],
      [
        "ar",
        "k"
      ],
      [
        "u",
        "al"
      ],
      [
        "Ġthe",
        "se"
      ],
      [
        "n",
        "ce"
      ],
      [
        "ĠS",
        "t"
      ],
      [
        "i",
        "ous"
      ],
      [
        "Ġan",
        "y"
      ],
      [
        "Ġs",
        "y"
      ],
      [
        "Ġc",
        "ol"
      ],
      [
        "Ġe",
        "m"
      ],
      [
        "o",
        "b"
      ],
      [
        "itt",
        "le"
      ],
      [
        "ĠC",
        "h"
      ],
      [
        "Ġ",
        "if"
      ],
      [
        "ar",
        "n"
      ],
      [
        "Ġlo",
        "ok"
      ],
      [
        ")",
        "."
      ],
      [
        "Ġth",
        "an"
      ],
      [
        "Ġd",
        "if"
      ],
      [
        "rou",
        "gh"
      ],
      [
        "w",
        "e"
      ],
      [
        "Ġa",
        "m"
      ],
      [
        "Ġf",
        "un"
      ],
      [
        "in",
        "t"
      ],
      [
        "p",
        "h"
      ],
      [
        "Ġu",
        "se"
      ],
      [
        "Ġo",
        "ver"
      ],
      [
        "Ġl",
        "ittle"
      ],
      [
        "Ġc",
        "o"
      ],
      [
        "Ġm",
        "y"
      ],
      [
        "Ġ",
        "Ċ"
      ],
      [
        "at",
        "ing"
      ],
      [
        "it",
        "ies"
      ],
      [
        "ol",
        "og"
      ],
      [
        "y",
        "s"
      ],
      [
        "ic",
        "t"
      ],
      [
        "ad",
        "e"
      ],
      [
        "x",
        "t"
      ],
      [
        "|",
        ">"
      ],
      [
        "<",
        "|"
      ],
      [
        "Ġin",
        "d"
      ],
      [
        "Ġn",
        "o"
      ],
      [
        "op",
        "le"
      ],
      [
        "Ġm",
        "om"
      ],
      [
        "p",
        "le"
      ],
      [
        "Ġd",
        "es"
      ],
      [
        "if",
        "ic"
      ],
      [
        "Ġsa",
        "w"
      ],
      [
        "Ġo",
        "ur"
      ],
      [
        "on",
        "s"
      ],
      [
        "d",
        "u"
      ],
      [
        "ver",
        "s"
      ],
      [
        "ir",
        "st"
      ],
      [
        "a",
        "il"
      ],
      [
        "Ġre",
        "c"
      ],
      [
        "Ġhapp",
        "y"
      ],
      [
        "at",
        "es"
      ],
      [
        "f",
        "ter"
      ],
      [
        "ot",
        "h"
      ],
      [
        "Ġwor",
        "k"
      ],
      [
        "ĠTh",
        "is"
      ],
      [
        "w",
        "n"
      ],
      [
        "Ġt",
        "w"
      ],
      [
        "Ġn",
        "am"
      ],
      [
        "Ġne",
        "ed"
      ],
      [
        "ir",
        "d"
      ],
      [
        "l",
        "es"
      ],
      [
        "au",
        "se"
      ],
      [
        "he",
        "n"
      ],
      [
        "Ġman",
        "y"
      ],
      [
        "Ġsu",
        "ch"
      ],
      [
        "Ġf",
        "ound"
      ],
      [
        "Ġ",
        "V"
      ],
      [
        "r",
        "it"
      ],
      [
        "Ġspe",
        "c"
      ],
      [
        "Ġh",
        "im"
      ],
      [
        "ic",
        "k"
      ],
      [
        "Ġpe",
        "ople"
      ],
      [
        "Ġin",
        "ter"
      ],
      [
        "in",
        "k"
      ],
      [
        "Ġre",
[...]
